#ifndef MODEL_DATA_H
#define MODEL_DATA_H

const unsigned int model_len = 4216;
__attribute__((aligned(8))) const unsigned char model_data[] = {
  0x1c, 0x00, 0x00, 0x00, 0x54, 0x46, 0x4c, 0x33, 0x14, 0x00, 0x20, 0x00,
  0x1c, 0x00, 0x18, 0x00, 0x14, 0x00, 0x10, 0x00, 0x0c, 0x00, 0x00, 0x00,
  0x08, 0x00, 0x04, 0x00, 0x14, 0x00, 0x00, 0x00, 0x1c, 0x00, 0x00, 0x00,
  0x88, 0x00, 0x00, 0x00, 0xe0, 0x00, 0x00, 0x00, 0x84, 0x08, 0x00, 0x00,
  0x94, 0x08, 0x00, 0x00, 0xf0, 0x0f, 0x00, 0x00, 0x03, 0x00, 0x00, 0x00,
  0x01, 0x00, 0x00, 0x00, 0x04, 0x00, 0x00, 0x00, 0xee, 0xf6, 0xff, 0xff,
  0x0c, 0x00, 0x00, 0x00, 0x1c, 0x00, 0x00, 0x00, 0x38, 0x00, 0x00, 0x00,
  0x0f, 0x00, 0x00, 0x00, 0x73, 0x65, 0x72, 0x76, 0x69, 0x6e, 0x67, 0x5f,
  0x64, 0x65, 0x66, 0x61, 0x75, 0x6c, 0x74, 0x00, 0x01, 0x00, 0x00, 0x00,
  0x04, 0x00, 0x00, 0x00, 0x94, 0xff, 0xff, 0xff, 0x08, 0x00, 0x00, 0x00,
  0x04, 0x00, 0x00, 0x00, 0x05, 0x00, 0x00, 0x00, 0x64, 0x65, 0x6e, 0x73,
  0x65, 0x00, 0x00, 0x00, 0x01, 0x00, 0x00, 0x00, 0x04, 0x00, 0x00, 0x00,
  0x02, 0xf8, 0xff, 0xff, 0x04, 0x00, 0x00, 0x00, 0x0c, 0x00, 0x00, 0x00,
  0x63, 0x6f, 0x6e, 0x76, 0x32, 0x64, 0x5f, 0x69, 0x6e, 0x70, 0x75, 0x74,
  0x00, 0x00, 0x00, 0x00, 0x02, 0x00, 0x00, 0x00, 0x34, 0x00, 0x00, 0x00,
  0x04, 0x00, 0x00, 0x00, 0xdc, 0xff, 0xff, 0xff, 0x0b, 0x00, 0x00, 0x00,
  0x04, 0x00, 0x00, 0x00, 0x13, 0x00, 0x00, 0x00, 0x43, 0x4f, 0x4e, 0x56,
  0x45, 0x52, 0x53, 0x49, 0x4f, 0x4e, 0x5f, 0x4d, 0x45, 0x54, 0x41, 0x44,
  0x41, 0x54, 0x41, 0x00, 0x08, 0x00, 0x0c, 0x00, 0x08, 0x00, 0x04, 0x00,
  0x08, 0x00, 0x00, 0x00, 0x0a, 0x00, 0x00, 0x00, 0x04, 0x00, 0x00, 0x00,
  0x13, 0x00, 0x00, 0x00, 0x6d, 0x69, 0x6e, 0x5f, 0x72, 0x75, 0x6e, 0x74,
  0x69, 0x6d, 0x65, 0x5f, 0x76, 0x65, 0x72, 0x73, 0x69, 0x6f, 0x6e, 0x00,
  0x0c, 0x00, 0x00, 0x00, 0xa0, 0x07, 0x00, 0x00, 0x98, 0x07, 0x00, 0x00,
  0x80, 0x07, 0x00, 0x00, 0x44, 0x07, 0x00, 0x00, 0x24, 0x02, 0x00, 0x00,
  0xd4, 0x01, 0x00, 0x00, 0xa4, 0x00, 0x00, 0x00, 0x9c, 0x00, 0x00, 0x00,
  0x94, 0x00, 0x00, 0x00, 0x8c, 0x00, 0x00, 0x00, 0x6c, 0x00, 0x00, 0x00,
  0x04, 0x00, 0x00, 0x00, 0xae, 0xf8, 0xff, 0xff, 0x04, 0x00, 0x00, 0x00,
  0x58, 0x00, 0x00, 0x00, 0x0c, 0x00, 0x00, 0x00, 0x08, 0x00, 0x0e, 0x00,
  0x08, 0x00, 0x04, 0x00, 0x08, 0x00, 0x00, 0x00, 0x10, 0x00, 0x00, 0x00,
  0x28, 0x00, 0x00, 0x00, 0x00, 0x00, 0x06, 0x00, 0x08, 0x00, 0x04, 0x00,
  0x06, 0x00, 0x00, 0x00, 0x04, 0x00, 0x00, 0x00, 0x01, 0x00, 0x00, 0x00,
  0xeb, 0x03, 0x00, 0x00, 0x00, 0x00, 0x0a, 0x00, 0x10, 0x00, 0x0c, 0x00,
  0x08, 0x00, 0x04, 0x00, 0x0a, 0x00, 0x00, 0x00, 0x01, 0x00, 0x00, 0x00,
  0x02, 0x00, 0x00, 0x00, 0x04, 0x00, 0x00, 0x00, 0x06, 0x00, 0x00, 0x00,
  0x32, 0x2e, 0x31, 0x30, 0x2e, 0x31, 0x00, 0x00, 0x12, 0xf9, 0xff, 0xff,
  0x04, 0x00, 0x00, 0x00, 0x10, 0x00, 0x00, 0x00, 0x31, 0x2e, 0x31, 0x34,
  0x2e, 0x30, 0x00, 0x00, 0x00, 0x00, 0x00, 0x00, 0x00, 0x00, 0x00, 0x00,
  0x7c, 0xf2, 0xff, 0xff, 0x80, 0xf2, 0xff, 0xff, 0x84, 0xf2, 0xff, 0xff,
  0x3a, 0xf9, 0xff, 0xff, 0x04, 0x00, 0x00, 0x00, 0x20, 0x01, 0x00, 0x00,
  0x58, 0xc2, 0x42, 0x82, 0xc7, 0x27, 0x81, 0x16, 0x22, 0xe4, 0x52, 0xd0,
  0x2e, 0xe0, 0xbf, 0x51, 0xe4, 0x17, 0xf1, 0x06, 0x2e, 0x1f, 0xf0, 0x05,
  0x26, 0xf2, 0x81, 0x21, 0x3b, 0xe8, 0xe5, 0x19, 0x37, 0xc2, 0xef, 0x0b,
  0x1a, 0x0c, 0x6b, 0x6d, 0x58, 0x5b, 0x85, 0x8d, 0xd6, 0xbb, 0x54, 0x7f,
  0x12, 0x44, 0xfc, 0x6b, 0x0d, 0xe3, 0x21, 0x14, 0xf4, 0xf5, 0xb0, 0x2a,
  0x26, 0xee, 0xed, 0xfd, 0x7f, 0x61, 0x15, 0xf7, 0xf2, 0x04, 0x34, 0xba,
  0xf3, 0x3d, 0x99, 0x00, 0x13, 0x63, 0x16, 0x20, 0x7f, 0x62, 0xdb, 0x10,
  0x17, 0x07, 0x42, 0x09, 0xd3, 0x12, 0x5f, 0x81, 0x47, 0x98, 0x57, 0x8b,
  0x2f, 0x05, 0x1b, 0x12, 0x1b, 0x10, 0xdd, 0x38, 0xde, 0x11, 0xd8, 0x37,
  0x26, 0x33, 0x0e, 0xe9, 0xc3, 0xe3, 0x0e, 0xc1, 0x7f, 0x43, 0xdb, 0x0a,
  0x07, 0x11, 0x34, 0x06, 0xfe, 0x1d, 0x3d, 0x8b, 0x15, 0x03, 0xe4, 0x2a,
  0x0d, 0xf6, 0x55, 0x81, 0x20, 0xc3, 0xdd, 0x12, 0x06, 0x14, 0x2e, 0xda,
  0x0e, 0x1f, 0xf9, 0xd1, 0x04, 0x1b, 0x16, 0xc3, 0x4f, 0x7f, 0xaa, 0x04,
  0xf4, 0x0c, 0x3d, 0x14, 0xfd, 0x19, 0x50, 0x81, 0x1a, 0x01, 0xdf, 0x41,
  0x40, 0x92, 0xfb, 0x18, 0x00, 0xf2, 0x5a, 0x89, 0x15, 0x04, 0xf1, 0x15,
  0x1b, 0xfc, 0x09, 0xd6, 0x10, 0xec, 0xed, 0x53, 0xe8, 0x44, 0x30, 0x81,
  0x1a, 0xe4, 0x2a, 0x01, 0x24, 0xe2, 0x0e, 0x1b, 0x12, 0x81, 0x44, 0x2b,
  0x09, 0xf4, 0x64, 0x6e, 0x52, 0xfd, 0xe2, 0x08, 0xae, 0x2f, 0xd3, 0xfd,
  0xec, 0x37, 0x14, 0x30, 0xd0, 0xdc, 0x81, 0xe0, 0x74, 0x3a, 0x57, 0x1b,
  0xfb, 0x2f, 0x28, 0x14, 0xed, 0xe0, 0x92, 0x03, 0x0a, 0xe8, 0xf8, 0x25,
  0x01, 0xf9, 0x7f, 0x76, 0x10, 0x00, 0x0c, 0x16, 0xe7, 0xfc, 0x23, 0xd7,
  0xc8, 0xfe, 0x42, 0x26, 0x49, 0x9a, 0x26, 0xee, 0x7f, 0x8a, 0xfc, 0xe6,
  0x36, 0xe9, 0x8a, 0x19, 0x1c, 0x06, 0x6f, 0x1a, 0x31, 0x1e, 0x2f, 0x9c,
  0x81, 0xc9, 0x32, 0x25, 0x32, 0xb8, 0x07, 0x2d, 0x08, 0x54, 0x48, 0xa3,
  0x66, 0xfa, 0xff, 0xff, 0x04, 0x00, 0x00, 0x00, 0x40, 0x00, 0x00, 0x00,
  0x1a, 0x00, 0x00, 0x00, 0x22, 0x00, 0x00, 0x00, 0x43, 0x00, 0x00, 0x00,
  0x27, 0x00, 0x00, 0x00, 0x14, 0x00, 0x00, 0x00, 0x0b, 0x00, 0x00, 0x00,
  0x36, 0x00, 0x00, 0x00, 0x1e, 0x00, 0x00, 0x00, 0x2f, 0x00, 0x00, 0x00,
  0x25, 0x00, 0x00, 0x00, 0x14, 0x00, 0x00, 0x00, 0x39, 0x00, 0x00, 0x00,
  0x10, 0x00, 0x00, 0x00, 0x1e, 0x00, 0x00, 0x00, 0x1f, 0x00, 0x00, 0x00,
  0x33, 0x00, 0x00, 0x00, 0xb2, 0xfa, 0xff, 0xff, 0x04, 0x00, 0x00, 0x00,
  0x10, 0x05, 0x00, 0x00, 0xfa, 0x0e, 0xef, 0xf6, 0xe4, 0x22, 0x14, 0x0d,
  0x09, 0x08, 0xf2, 0x0c, 0xde, 0x15, 0xfa, 0x09, 0x08, 0x0f, 0x14, 0x1a,
  0xf6, 0xed, 0xf3, 0xff, 0x00, 0x02, 0xf3, 0x07, 0xff, 0xfa, 0x12, 0xec,
  0xfe, 0xfc, 0xf9, 0xfe, 0xd7, 0xe8, 0x01, 0x1c, 0x07, 0x09, 0x04, 0x00,
  0x06, 0xe6, 0xef, 0xff, 0x06, 0x13, 0x06, 0xf9, 0xfa, 0x01, 0xed, 0x05,
  0x04, 0x07, 0xf2, 0xff, 0x04, 0xfa, 0x07, 0xee, 0x0e, 0xfd, 0xfa, 0x11,
  0x06, 0xf0, 0x02, 0x67, 0xe3, 0x0b, 0xfe, 0x0e, 0xfa, 0xfd, 0xfe, 0xf2,
  0xfd, 0xec, 0x02, 0xf2, 0x01, 0x27, 0x00, 0x06, 0x17, 0x02, 0xe2, 0xc9,
  0x01, 0x0b, 0xeb, 0x00, 0xfb, 0xfc, 0x00, 0xe1, 0xf7, 0x01, 0x0b, 0x05,
  0xfa, 0x02, 0xff, 0x03, 0xeb, 0x0f, 0x02, 0xfd, 0x0a, 0x04, 0x08, 0x0a,
  0x04, 0xd6, 0x01, 0x03, 0x01, 0x0f, 0x03, 0x08, 0x02, 0xf6, 0x02, 0x00,
  0x27, 0xcf, 0x15, 0xfc, 0x03, 0xff, 0xf7, 0xf7, 0x17, 0xf5, 0xf6, 0xfe,
  0x09, 0xfd, 0xe3, 0x0a, 0xef, 0xe4, 0x09, 0xee, 0xfd, 0xee, 0xf7, 0xfa,
  0xfa, 0xe4, 0x04, 0xf9, 0x12, 0xcf, 0x13, 0x04, 0x14, 0x01, 0xdc, 0x07,
  0x1c, 0xf2, 0xec, 0xfc, 0x05, 0x00, 0xef, 0xbb, 0x0a, 0xf5, 0xfb, 0x0d,
  0xe2, 0x03, 0xfd, 0xf9, 0x11, 0xeb, 0xf7, 0xec, 0x13, 0xfe, 0x00, 0xfd,
  0x0d, 0xfc, 0xf1, 0xf0, 0x0f, 0x28, 0xfe, 0x05, 0x05, 0x04, 0x0c, 0xe0,
  0x05, 0x14, 0x06, 0xf0, 0x06, 0xfb, 0x00, 0x11, 0xf7, 0x0b, 0xf5, 0xee,
  0x10, 0xfe, 0xf6, 0xf7, 0x0f, 0xd2, 0x0f, 0xfe, 0x0f, 0xf4, 0xf7, 0xfd,
  0xf6, 0x0c, 0xed, 0x09, 0xf8, 0xe1, 0x13, 0x07, 0x07, 0x31, 0x15, 0xef,
  0xee, 0x06, 0x06, 0xee, 0x11, 0x0a, 0xf4, 0xfe, 0xe6, 0xfa, 0xe6, 0x0f,
  0xfa, 0xfa, 0x00, 0x01, 0xf7, 0xeb, 0x15, 0x14, 0xfd, 0x00, 0x00, 0x07,
  0x00, 0x04, 0xda, 0x0b, 0xf6, 0xfe, 0x10, 0x09, 0x03, 0x06, 0x08, 0x08,
  0xe8, 0x06, 0xd4, 0x0a, 0x06, 0x0d, 0xff, 0xff, 0xf9, 0x12, 0x09, 0x18,
  0xf1, 0xfe, 0xfc, 0xf4, 0x02, 0xe1, 0xf3, 0xe5, 0xff, 0x0e, 0xfa, 0xf0,
  0x0c, 0xf6, 0xd6, 0x0f, 0x1b, 0x21, 0xb3, 0x09, 0x17, 0x07, 0x01, 0xf9,
  0x07, 0x0b, 0xe6, 0xd1, 0x00, 0x02, 0x02, 0x07, 0xcf, 0x0b, 0xfb, 0x09,
  0x0e, 0xfe, 0x0a, 0xff, 0x06, 0x0a, 0xdf, 0x0a, 0xea, 0x19, 0x02, 0xfd,
  0x04, 0x08, 0xec, 0xe3, 0x00, 0x1c, 0x13, 0xfd, 0xf4, 0xfc, 0x08, 0x02,
  0xe2, 0xfc, 0x11, 0x0d, 0xfd, 0x03, 0x06, 0x13, 0x06, 0xf9, 0x07, 0xe0,
  0xea, 0xdd, 0x05, 0xd7, 0x09, 0x0f, 0xdc, 0xfa, 0xff, 0x14, 0xf8, 0x07,
  0xfe, 0x06, 0x0a, 0xe0, 0x09, 0xcf, 0xe3, 0xfb, 0x0e, 0x06, 0xdf, 0x1e,
  0xff, 0x0b, 0x08, 0x08, 0xff, 0x1a, 0xf7, 0x05, 0xf6, 0xd0, 0xfa, 0xe5,
  0x0d, 0x09, 0x0b, 0x05, 0x05, 0xdd, 0xdc, 0xfe, 0x0c, 0xf9, 0x01, 0x01,
  0x05, 0x07, 0xf6, 0xc0, 0x00, 0xfb, 0xfc, 0x03, 0xfd, 0xfe, 0x12, 0x21,
  0x01, 0x0c, 0x17, 0xbb, 0x1d, 0x08, 0x0a, 0x01, 0xf9, 0xde, 0xff, 0x14,
  0xf4, 0x06, 0x0b, 0x05, 0x03, 0x0d, 0x07, 0xe1, 0x13, 0xf3, 0x13, 0xe0,
  0x19, 0xf1, 0x07, 0xee, 0xff, 0xe5, 0x0c, 0xe4, 0x04, 0xfe, 0xed, 0xcf,
  0x14, 0x14, 0x1b, 0x06, 0xe9, 0xf9, 0xf5, 0x0e, 0x03, 0xf9, 0x0c, 0xf6,
  0x00, 0x06, 0xfb, 0xfb, 0xf0, 0x03, 0x0c, 0xb9, 0xea, 0xfe, 0x17, 0x03,
  0xf9, 0x0f, 0x12, 0x15, 0xe3, 0xe1, 0xf7, 0x0a, 0x19, 0x1b, 0xfa, 0xfc,
  0x03, 0xd0, 0x00, 0x07, 0xfe, 0xee, 0xff, 0xe5, 0x02, 0x08, 0xfc, 0x05,
  0x03, 0x07, 0x05, 0xff, 0xe4, 0xf7, 0x06, 0xdc, 0x0b, 0x02, 0x15, 0xec,
  0xfc, 0xec, 0x0a, 0x0c, 0xf8, 0x35, 0xfc, 0xfd, 0xf9, 0x00, 0xef, 0x02,
  0x09, 0xdc, 0xd7, 0x10, 0x07, 0xeb, 0x05, 0x09, 0x15, 0x12, 0xe0, 0xfe,
  0xfb, 0x11, 0xff, 0xfe, 0xfc, 0xfd, 0x06, 0xe2, 0x11, 0xfd, 0xf5, 0xe6,
  0x05, 0x0c, 0x07, 0x0c, 0xca, 0x08, 0x05, 0x07, 0x12, 0xfb, 0x09, 0xe9,
  0xfc, 0x0c, 0xf0, 0x16, 0xb8, 0x14, 0x03, 0xe9, 0xe9, 0xff, 0xf4, 0x0a,
  0x06, 0xe3, 0xdc, 0x04, 0xfd, 0xfe, 0x15, 0x1b, 0xe7, 0x23, 0x06, 0xf7,
  0xcd, 0xfa, 0x14, 0x11, 0xff, 0x11, 0x15, 0x07, 0xf0, 0x09, 0x01, 0xed,
  0x08, 0xea, 0x0f, 0x1b, 0xee, 0xe9, 0x05, 0x00, 0x0a, 0xeb, 0xa4, 0x0c,
  0xfd, 0x04, 0x08, 0xe8, 0x0a, 0xfb, 0x01, 0xfc, 0xe3, 0xf3, 0xee, 0x18,
  0xef, 0xfe, 0x19, 0xfd, 0xf8, 0xa5, 0xf6, 0x09, 0x37, 0xf7, 0x03, 0x01,
  0x02, 0x04, 0xe6, 0x07, 0x13, 0x06, 0xf1, 0xff, 0xf2, 0xf7, 0x06, 0x1d,
  0x08, 0xfc, 0xf3, 0xfe, 0xfd, 0xf6, 0x03, 0x13, 0xe1, 0x07, 0xfa, 0x0e,
  0xf7, 0xf9, 0xee, 0x06, 0x0c, 0xb4, 0x26, 0xf0, 0xdd, 0xf6, 0xea, 0xef,
  0x02, 0x07, 0xe9, 0xf0, 0x0b, 0x00, 0xf4, 0x07, 0x12, 0x09, 0x05, 0xee,
  0x02, 0xf0, 0x06, 0x01, 0x09, 0xf5, 0xf3, 0xf3, 0xe4, 0x10, 0x0c, 0xf5,
  0x05, 0x00, 0x0c, 0x01, 0xfa, 0xb0, 0xfe, 0xfb, 0x08, 0x13, 0xf4, 0x11,
  0x01, 0x0e, 0x08, 0x0a, 0x0f, 0xd3, 0x07, 0x08, 0xdd, 0xfe, 0x07, 0xe6,
  0x15, 0x0c, 0x0e, 0xf4, 0x0a, 0x09, 0xd2, 0x01, 0x04, 0xbe, 0xca, 0x2b,
  0x0a, 0x00, 0xf9, 0xe0, 0xf7, 0xd8, 0x08, 0x05, 0x00, 0xd7, 0xff, 0xe9,
  0xd9, 0x07, 0xf2, 0x09, 0x0c, 0xf0, 0xd6, 0xfd, 0x08, 0xfd, 0x00, 0xa6,
  0x06, 0xfb, 0x0c, 0x09, 0x08, 0x12, 0x01, 0x06, 0x07, 0xc9, 0x06, 0xee,
  0x17, 0x0e, 0x08, 0x0e, 0xfd, 0xe5, 0xdb, 0x19, 0x17, 0x10, 0x06, 0x05,
  0xfa, 0xfd, 0xfd, 0xf0, 0xfa, 0x18, 0x0a, 0x1c, 0x00, 0x02, 0x10, 0xfa,
  0xfa, 0x0e, 0xe6, 0xd4, 0x0c, 0xfb, 0xf0, 0x02, 0x0d, 0xeb, 0x0f, 0xfc,
  0x1a, 0x06, 0xe6, 0xf0, 0x04, 0x1e, 0xd8, 0x06, 0xc9, 0xe2, 0x07, 0xfc,
  0xe7, 0xe9, 0x1d, 0x0a, 0x06, 0xfd, 0x13, 0x0e, 0x0d, 0x09, 0x05, 0xfd,
  0x81, 0x06, 0xf0, 0x11, 0x08, 0x0a, 0xf9, 0x06, 0xf0, 0xec, 0xff, 0x08,
  0xea, 0x00, 0x07, 0x14, 0x0c, 0xfd, 0xbe, 0x03, 0xee, 0x03, 0xf3, 0xd8,
  0x0f, 0x00, 0x06, 0xec, 0xf8, 0x04, 0xe4, 0x08, 0x16, 0xeb, 0x0b, 0xeb,
  0xff, 0xf6, 0x18, 0xfc, 0x08, 0xe1, 0x1a, 0xf3, 0x13, 0xc4, 0x01, 0x0b,
  0xf9, 0xe7, 0x13, 0x2d, 0x02, 0xfc, 0x04, 0x0e, 0xe6, 0xdc, 0x05, 0xfc,
  0xdd, 0xfa, 0x02, 0xf8, 0x13, 0x1f, 0x05, 0x05, 0x0b, 0x09, 0x0f, 0x0a,
  0x06, 0x0b, 0x00, 0xfa, 0x07, 0x08, 0x05, 0xe9, 0x03, 0xfe, 0xb7, 0xef,
  0x04, 0x04, 0xfd, 0xf6, 0x01, 0xef, 0x0e, 0xd3, 0xc8, 0xf9, 0x00, 0x02,
  0x02, 0xeb, 0xf6, 0x05, 0xbc, 0x08, 0x06, 0xe4, 0x0c, 0xf9, 0xec, 0xe4,
  0x11, 0xf1, 0x17, 0xd6, 0x0e, 0xfe, 0x03, 0xe2, 0xf9, 0x01, 0xb1, 0x19,
  0x06, 0x04, 0x24, 0xf7, 0xfb, 0x25, 0xf1, 0xec, 0x12, 0xe6, 0x03, 0x17,
  0xff, 0xd8, 0x0a, 0x04, 0xc5, 0xc2, 0x12, 0x02, 0xfd, 0x00, 0x08, 0x0b,
  0x13, 0xde, 0x0a, 0xfd, 0x04, 0x0e, 0x0a, 0xf5, 0xfc, 0x06, 0xe0, 0x1c,
  0x00, 0x08, 0x00, 0xff, 0x12, 0xfd, 0xf3, 0xc3, 0x11, 0xf8, 0xc6, 0x06,
  0x0a, 0x0b, 0x0c, 0x04, 0xfd, 0xe9, 0x12, 0x0a, 0xf5, 0x0f, 0xd8, 0xe0,
  0xfd, 0xe9, 0x19, 0xff, 0x04, 0xfa, 0xef, 0x0a, 0x1b, 0xef, 0xf2, 0xe3,
  0x09, 0x04, 0xe9, 0xf5, 0x04, 0xeb, 0x02, 0xf0, 0x07, 0xf4, 0x0b, 0x08,
  0xd6, 0x0d, 0x02, 0xf8, 0xf7, 0x0f, 0x14, 0x02, 0x0c, 0xfb, 0x00, 0x15,
  0xf4, 0xb9, 0x09, 0xf2, 0x13, 0x11, 0x0f, 0x11, 0x00, 0xfa, 0x07, 0xd9,
  0xf5, 0x00, 0x04, 0x07, 0xf3, 0x29, 0xd9, 0xf9, 0xc8, 0xfc, 0x07, 0xff,
  0xfe, 0x00, 0xf6, 0xfc, 0x04, 0xbc, 0x04, 0xf3, 0xe7, 0x08, 0x04, 0xe8,
  0xf0, 0x0f, 0x09, 0xe3, 0x08, 0x04, 0x07, 0x02, 0xf4, 0xf6, 0x13, 0x93,
  0x15, 0x06, 0xfc, 0x1d, 0x05, 0xd2, 0x1e, 0x0f, 0xf1, 0x07, 0x16, 0xfe,
  0x08, 0xef, 0xff, 0x08, 0x17, 0xc0, 0xf7, 0xff, 0x05, 0x04, 0x10, 0xf9,
  0x11, 0x00, 0xee, 0xff, 0x02, 0x03, 0x04, 0x07, 0xfb, 0x04, 0xf4, 0xd1,
  0x0f, 0x02, 0x0a, 0x05, 0x08, 0x18, 0xe6, 0xfc, 0xb9, 0x07, 0xff, 0xb8,
  0xf4, 0xe0, 0xf7, 0xff, 0xf8, 0xef, 0xfa, 0x02, 0xfa, 0x01, 0x10, 0xe2,
  0x00, 0xfd, 0xc4, 0x10, 0xff, 0x1f, 0xee, 0x33, 0xf3, 0x0e, 0xff, 0x0a,
  0xf3, 0x2f, 0x14, 0xc3, 0xfa, 0xfe, 0x04, 0xe5, 0xc7, 0x12, 0xff, 0x13,
  0xe8, 0x0a, 0x06, 0xea, 0x06, 0xde, 0x1f, 0x07, 0xfc, 0x17, 0x04, 0x0e,
  0x0c, 0x08, 0xcd, 0x11, 0xf7, 0x0f, 0x08, 0x0b, 0x08, 0xf3, 0x07, 0x09,
  0xbe, 0xf7, 0xfb, 0x02, 0xed, 0xf8, 0x06, 0x0a, 0xc2, 0xc7, 0xfb, 0x0a,
  0x02, 0xfe, 0x07, 0xfc, 0x00, 0x01, 0xe4, 0x08, 0xfa, 0xf5, 0xfe, 0x1b,
  0xeb, 0x26, 0x04, 0x01, 0x00, 0x09, 0x11, 0x02, 0x03, 0xec, 0x08, 0x12,
  0xb8, 0x02, 0xd1, 0x0b, 0xf7, 0xf6, 0xaf, 0x06, 0xfd, 0xdb, 0x1a, 0x0f,
  0x08, 0x1a, 0x0f, 0xf0, 0xc6, 0x1d, 0xf5, 0x06, 0xf8, 0x06, 0x10, 0x0c,
  0x01, 0x0b, 0xf4, 0xcc, 0xfb, 0x06, 0x04, 0xfd, 0x08, 0xeb, 0x08, 0xe8,
  0xd0, 0x00, 0xff, 0x0a, 0xfb, 0x04, 0x08, 0x07, 0xf1, 0x9b, 0x18, 0xef,
  0xd4, 0x02, 0xd9, 0x0e, 0xee, 0x0e, 0x02, 0x03, 0x11, 0x03, 0xfb, 0xff,
  0xf3, 0x03, 0xfc, 0xfd, 0xce, 0xff, 0xff, 0xff, 0x04, 0x00, 0x00, 0x00,
  0x24, 0x00, 0x00, 0x00, 0xff, 0xff, 0xff, 0xff, 0x01, 0x00, 0x00, 0x00,
  0x00, 0x00, 0x00, 0x00, 0xfe, 0xff, 0xff, 0xff, 0x01, 0x00, 0x00, 0x00,
  0xff, 0xff, 0xff, 0xff, 0x01, 0x00, 0x00, 0x00, 0xfe, 0xff, 0xff, 0xff,
  0x00, 0x00, 0x00, 0x00, 0x00, 0x00, 0x06, 0x00, 0x08, 0x00, 0x04, 0x00,
  0x06, 0x00, 0x00, 0x00, 0x04, 0x00, 0x00, 0x00, 0x08, 0x00, 0x00, 0x00,
  0xff, 0xff, 0xff, 0xff, 0x90, 0x00, 0x00, 0x00, 0x68, 0xf9, 0xff, 0xff,
  0x6c, 0xf9, 0xff, 0xff, 0x0f, 0x00, 0x00, 0x00, 0x4d, 0x4c, 0x49, 0x52,
  0x20, 0x43, 0x6f, 0x6e, 0x76, 0x65, 0x72, 0x74, 0x65, 0x64, 0x2e, 0x00,
  0x01, 0x00, 0x00, 0x00, 0x14, 0x00, 0x00, 0x00, 0x00, 0x00, 0x0e, 0x00,
  0x18, 0x00, 0x14, 0x00, 0x10, 0x00, 0x0c, 0x00, 0x08, 0x00, 0x04, 0x00,
  0x0e, 0x00, 0x00, 0x00, 0x14, 0x00, 0x00, 0x00, 0x1c, 0x00, 0x00, 0x00,
  0xf4, 0x00, 0x00, 0x00, 0xf8, 0x00, 0x00, 0x00, 0xfc, 0x00, 0x00, 0x00,
  0x04, 0x00, 0x00, 0x00, 0x6d, 0x61, 0x69, 0x6e, 0x00, 0x00, 0x00, 0x00,
  0x03, 0x00, 0x00, 0x00, 0x90, 0x00, 0x00, 0x00, 0x58, 0x00, 0x00, 0x00,
  0x14, 0x00, 0x00, 0x00, 0x00, 0x00, 0x0e, 0x00, 0x18, 0x00, 0x14, 0x00,
  0x10, 0x00, 0x0c, 0x00, 0x0b, 0x00, 0x04, 0x00, 0x0e, 0x00, 0x00, 0x00,
  0x14, 0x00, 0x00, 0x00, 0x00, 0x00, 0x00, 0x08, 0x10, 0x00, 0x00, 0x00,
  0x14, 0x00, 0x00, 0x00, 0x02, 0x00, 0x00, 0x00, 0xf8, 0xf9, 0xff, 0xff,
  0x01, 0x00, 0x00, 0x00, 0x08, 0x00, 0x00, 0x00, 0x03, 0x00, 0x00, 0x00,
  0x07, 0x00, 0x00, 0x00, 0x03, 0x00, 0x00, 0x00, 0x02, 0x00, 0x00, 0x00,
  0x00, 0x00, 0x0a, 0x00, 0x10, 0x00, 0x0c, 0x00, 0x08, 0x00, 0x04, 0x00,
  0x0a, 0x00, 0x00, 0x00, 0x0c, 0x00, 0x00, 0x00, 0x10, 0x00, 0x00, 0x00,
  0x01, 0x00, 0x00, 0x00, 0x01, 0x00, 0x00, 0x00, 0x07, 0x00, 0x00, 0x00,
  0x02, 0x00, 0x00, 0x00, 0x06, 0x00, 0x00, 0x00, 0x01, 0x00, 0x00, 0x00,
  0x00, 0x00, 0x0e, 0x00, 0x14, 0x00, 0x00, 0x00, 0x10, 0x00, 0x0c, 0x00,
  0x0b, 0x00, 0x04, 0x00, 0x0e, 0x00, 0x00, 0x00, 0x1c, 0x00, 0x00, 0x00,
  0x00, 0x00, 0x00, 0x01, 0x24, 0x00, 0x00, 0x00, 0x28, 0x00, 0x00, 0x00,
  0x0c, 0x00, 0x10, 0x00, 0x00, 0x00, 0x0c, 0x00, 0x08, 0x00, 0x07, 0x00,
  0x0c, 0x00, 0x00, 0x00, 0x00, 0x00, 0x00, 0x01, 0x01, 0x00, 0x00, 0x00,
  0x01, 0x00, 0x00, 0x00, 0x01, 0x00, 0x00, 0x00, 0x06, 0x00, 0x00, 0x00,
  0x03, 0x00, 0x00, 0x00, 0x00, 0x00, 0x00, 0x00, 0x05, 0x00, 0x00, 0x00,
  0x04, 0x00, 0x00, 0x00, 0x01, 0x00, 0x00, 0x00, 0x08, 0x00, 0x00, 0x00,
  0x01, 0x00, 0x00, 0x00, 0x00, 0x00, 0x00, 0x00, 0x09, 0x00, 0x00, 0x00,
  0x98, 0x05, 0x00, 0x00, 0x30, 0x05, 0x00, 0x00, 0xa4, 0x04, 0x00, 0x00,
  0x38, 0x04, 0x00, 0x00, 0x0c, 0x03, 0x00, 0x00, 0xe0, 0x01, 0x00, 0x00,
  0xfc, 0x00, 0x00, 0x00, 0x80, 0x00, 0x00, 0x00, 0x04, 0x00, 0x00, 0x00,
  0xa2, 0xfa, 0xff, 0xff, 0x00, 0x00, 0x00, 0x01, 0x18, 0x00, 0x00, 0x00,
  0x20, 0x00, 0x00, 0x00, 0x3c, 0x00, 0x00, 0x00, 0x09, 0x00, 0x00, 0x00,
  0x00, 0x00, 0x00, 0x09, 0x50, 0x00, 0x00, 0x00, 0x02, 0x00, 0x00, 0x00,
  0xff, 0xff, 0xff, 0xff, 0x09, 0x00, 0x00, 0x00, 0x84, 0xfa, 0xff, 0xff,
  0x08, 0x00, 0x00, 0x00, 0x10, 0x00, 0x00, 0x00, 0x01, 0x00, 0x00, 0x00,
  0x4d, 0x00, 0x00, 0x00, 0x00, 0x00, 0x00, 0x00, 0x01, 0x00, 0x00, 0x00,
  0x60, 0x32, 0xcc, 0x41, 0x19, 0x00, 0x00, 0x00, 0x53, 0x74, 0x61, 0x74,
  0x65, 0x66, 0x75, 0x6c, 0x50, 0x61, 0x72, 0x74, 0x69, 0x74, 0x69, 0x6f,
  0x6e, 0x65, 0x64, 0x43, 0x61, 0x6c, 0x6c, 0x3a, 0x30, 0x00, 0x00, 0x00,
  0x02, 0x00, 0x00, 0x00, 0x01, 0x00, 0x00, 0x00, 0x09, 0x00, 0x00, 0x00,
  0x1a, 0xfb, 0xff, 0xff, 0x00, 0x00, 0x00, 0x01, 0x18, 0x00, 0x00, 0x00,
  0x20, 0x00, 0x00, 0x00, 0x3c, 0x00, 0x00, 0x00, 0x08, 0x00, 0x00, 0x00,
  0x00, 0x00, 0x00, 0x09, 0x50, 0x00, 0x00, 0x00, 0x02, 0x00, 0x00, 0x00,
  0xff, 0xff, 0xff, 0xff, 0x90, 0x00, 0x00, 0x00, 0xfc, 0xfa, 0xff, 0xff,
  0x08, 0x00, 0x00, 0x00, 0x10, 0x00, 0x00, 0x00, 0x01, 0x00, 0x00, 0x00,
  0x80, 0xff, 0xff, 0xff, 0xff, 0xff, 0xff, 0xff, 0x01, 0x00, 0x00, 0x00,
  0x27, 0xae, 0x95, 0x40, 0x1a, 0x00, 0x00, 0x00, 0x73, 0x65, 0x71, 0x75,
  0x65, 0x6e, 0x74, 0x69, 0x61, 0x6c, 0x2f, 0x66, 0x6c, 0x61, 0x74, 0x74,
  0x65, 0x6e, 0x2f, 0x52, 0x65, 0x73, 0x68, 0x61, 0x70, 0x65, 0x00, 0x00,
  0x02, 0x00, 0x00, 0x00, 0x01, 0x00, 0x00, 0x00, 0x90, 0x00, 0x00, 0x00,
  0x92, 0xfb, 0xff, 0xff, 0x00, 0x00, 0x00, 0x01, 0x18, 0x00, 0x00, 0x00,
  0x28, 0x00, 0x00, 0x00, 0x44, 0x00, 0x00, 0x00, 0x07, 0x00, 0x00, 0x00,
  0x00, 0x00, 0x00, 0x09, 0xb0, 0x00, 0x00, 0x00, 0x04, 0x00, 0x00, 0x00,
  0xff, 0xff, 0xff, 0xff, 0x03, 0x00, 0x00, 0x00, 0x03, 0x00, 0x00, 0x00,
  0x10, 0x00, 0x00, 0x00, 0x7c, 0xfb, 0xff, 0xff, 0x08, 0x00, 0x00, 0x00,
  0x10, 0x00, 0x00, 0x00, 0x01, 0x00, 0x00, 0x00, 0x80, 0xff, 0xff, 0xff,
  0xff, 0xff, 0xff, 0xff, 0x01, 0x00, 0x00, 0x00, 0x27, 0xae, 0x95, 0x40,
  0x72, 0x00, 0x00, 0x00, 0x73, 0x65, 0x71, 0x75, 0x65, 0x6e, 0x74, 0x69,
  0x61, 0x6c, 0x2f, 0x63, 0x6f, 0x6e, 0x76, 0x32, 0x64, 0x2f, 0x52, 0x65,
  0x6c, 0x75, 0x3b, 0x73, 0x65, 0x71, 0x75, 0x65, 0x6e, 0x74, 0x69, 0x61,
  0x6c, 0x2f, 0x63, 0x6f, 0x6e, 0x76, 0x32, 0x64, 0x2f, 0x42, 0x69, 0x61,
  0x73, 0x41, 0x64, 0x64, 0x3b, 0x73, 0x65, 0x71, 0x75, 0x65, 0x6e, 0x74,
  0x69, 0x61, 0x6c, 0x2f, 0x63, 0x6f, 0x6e, 0x76, 0x32, 0x64, 0x2f, 0x43,
  0x6f, 0x6e, 0x76, 0x32, 0x44, 0x3b, 0x73, 0x65, 0x71, 0x75, 0x65, 0x6e,
  0x74, 0x69, 0x61, 0x6c, 0x2f, 0x63, 0x6f, 0x6e, 0x76, 0x32, 0x64, 0x2f,
  0x42, 0x69, 0x61, 0x73, 0x41, 0x64, 0x64, 0x2f, 0x52, 0x65, 0x61, 0x64,
  0x56, 0x61, 0x72, 0x69, 0x61, 0x62, 0x6c, 0x65, 0x4f, 0x70, 0x00, 0x00,
  0x04, 0x00, 0x00, 0x00, 0x01, 0x00, 0x00, 0x00, 0x03, 0x00, 0x00, 0x00,
  0x03, 0x00, 0x00, 0x00, 0x10, 0x00, 0x00, 0x00, 0xd6, 0xfc, 0xff, 0xff,
  0x00, 0x00, 0x00, 0x01, 0x14, 0x00, 0x00, 0x00, 0xe8, 0x00, 0x00, 0x00,
  0x06, 0x00, 0x00, 0x00, 0x00, 0x00, 0x00, 0x09, 0xfc, 0x00, 0x00, 0x00,
  0x44, 0xfc, 0xff, 0xff, 0x08, 0x00, 0x00, 0x00, 0x8c, 0x00, 0x00, 0x00,
  0x10, 0x00, 0x00, 0x00, 0x00, 0x00, 0x00, 0x00, 0x00, 0x00, 0x00, 0x00,
  0x00, 0x00, 0x00, 0x00, 0x00, 0x00, 0x00, 0x00, 0x00, 0x00, 0x00, 0x00,
  0x00, 0x00, 0x00, 0x00, 0x00, 0x00, 0x00, 0x00, 0x00, 0x00, 0x00, 0x00,
  0x00, 0x00, 0x00, 0x00, 0x00, 0x00, 0x00, 0x00, 0x00, 0x00, 0x00, 0x00,
  0x00, 0x00, 0x00, 0x00, 0x00, 0x00, 0x00, 0x00, 0x00, 0x00, 0x00, 0x00,
  0x00, 0x00, 0x00, 0x00, 0x00, 0x00, 0x00, 0x00, 0x00, 0x00, 0x00, 0x00,
  0x00, 0x00, 0x00, 0x00, 0x00, 0x00, 0x00, 0x00, 0x00, 0x00, 0x00, 0x00,
  0x00, 0x00, 0x00, 0x00, 0x00, 0x00, 0x00, 0x00, 0x00, 0x00, 0x00, 0x00,
  0x00, 0x00, 0x00, 0x00, 0x00, 0x00, 0x00, 0x00, 0x00, 0x00, 0x00, 0x00,
  0x00, 0x00, 0x00, 0x00, 0x00, 0x00, 0x00, 0x00, 0x00, 0x00, 0x00, 0x00,
  0x00, 0x00, 0x00, 0x00, 0x00, 0x00, 0x00, 0x00, 0x00, 0x00, 0x00, 0x00,
  0x00, 0x00, 0x00, 0x00, 0x10, 0x00, 0x00, 0x00, 0x16, 0x0d, 0x2f, 0x3c,
  0x4a, 0xee, 0x85, 0x3c, 0xf0, 0x71, 0xd1, 0x3b, 0xdf, 0x28, 0x5e, 0x3c,
  0xef, 0xb4, 0x22, 0x3c, 0xce, 0xa4, 0x4f, 0x3c, 0x55, 0x31, 0x15, 0x3c,
  0x8b, 0x78, 0x5c, 0x3c, 0x0e, 0xe4, 0x48, 0x3c, 0x73, 0x5a, 0x45, 0x3c,
  0xbb, 0xf8, 0x66, 0x3c, 0xa9, 0x00, 0x12, 0x3c, 0xfc, 0xfe, 0x19, 0x3c,
  0x92, 0x45, 0x4b, 0x3c, 0xda, 0xae, 0x2f, 0x3c, 0xbb, 0x78, 0xf2, 0x3b,
  0x18, 0x00, 0x00, 0x00, 0x73, 0x65, 0x71, 0x75, 0x65, 0x6e, 0x74, 0x69,
  0x61, 0x6c, 0x2f, 0x63, 0x6f, 0x6e, 0x76, 0x32, 0x64, 0x2f, 0x43, 0x6f,
  0x6e, 0x76, 0x32, 0x44, 0x00, 0x00, 0x00, 0x00, 0x04, 0x00, 0x00, 0x00,
  0x10, 0x00, 0x00, 0x00, 0x03, 0x00, 0x00, 0x00, 0x03, 0x00, 0x00, 0x00,
  0x02, 0x00, 0x00, 0x00, 0xfe, 0xfd, 0xff, 0xff, 0x00, 0x00, 0x00, 0x01,
  0x14, 0x00, 0x00, 0x00, 0xe4, 0x00, 0x00, 0x00, 0x05, 0x00, 0x00, 0x00,
  0x00, 0x00, 0x00, 0x02, 0x08, 0x01, 0x00, 0x00, 0x6c, 0xfd, 0xff, 0xff,
  0x08, 0x00, 0x00, 0x00, 0x88, 0x00, 0x00, 0x00, 0x10, 0x00, 0x00, 0x00,
  0x00, 0x00, 0x00, 0x00, 0x00, 0x00, 0x00, 0x00, 0x00, 0x00, 0x00, 0x00,
  0x00, 0x00, 0x00, 0x00, 0x00, 0x00, 0x00, 0x00, 0x00, 0x00, 0x00, 0x00,
  0x00, 0x00, 0x00, 0x00, 0x00, 0x00, 0x00, 0x00, 0x00, 0x00, 0x00, 0x00,
  0x00, 0x00, 0x00, 0x00, 0x00, 0x00, 0x00, 0x00, 0x00, 0x00, 0x00, 0x00,
  0x00, 0x00, 0x00, 0x00, 0x00, 0x00, 0x00, 0x00, 0x00, 0x00, 0x00, 0x00,
  0x00, 0x00, 0x00, 0x00, 0x00, 0x00, 0x00, 0x00, 0x00, 0x00, 0x00, 0x00,
  0x00, 0x00, 0x00, 0x00, 0x00, 0x00, 0x00, 0x00, 0x00, 0x00, 0x00, 0x00,
  0x00, 0x00, 0x00, 0x00, 0x00, 0x00, 0x00, 0x00, 0x00, 0x00, 0x00, 0x00,
  0x00, 0x00, 0x00, 0x00, 0x00, 0x00, 0x00, 0x00, 0x00, 0x00, 0x00, 0x00,
  0x00, 0x00, 0x00, 0x00, 0x00, 0x00, 0x00, 0x00, 0x00, 0x00, 0x00, 0x00,
  0x00, 0x00, 0x00, 0x00, 0x00, 0x00, 0x00, 0x00, 0x10, 0x00, 0x00, 0x00,
  0x16, 0x0d, 0x2f, 0x3c, 0x4a, 0xee, 0x85, 0x3c, 0xf0, 0x71, 0xd1, 0x3b,
  0xdf, 0x28, 0x5e, 0x3c, 0xef, 0xb4, 0x22, 0x3c, 0xce, 0xa4, 0x4f, 0x3c,
  0x55, 0x31, 0x15, 0x3c, 0x8b, 0x78, 0x5c, 0x3c, 0x0e, 0xe4, 0x48, 0x3c,
  0x73, 0x5a, 0x45, 0x3c, 0xbb, 0xf8, 0x66, 0x3c, 0xa9, 0x00, 0x12, 0x3c,
  0xfc, 0xfe, 0x19, 0x3c, 0x92, 0x45, 0x4b, 0x3c, 0xda, 0xae, 0x2f, 0x3c,
  0xbb, 0x78, 0xf2, 0x3b, 0x28, 0x00, 0x00, 0x00, 0x73, 0x65, 0x71, 0x75,
  0x65, 0x6e, 0x74, 0x69, 0x61, 0x6c, 0x2f, 0x63, 0x6f, 0x6e, 0x76, 0x32,
  0x64, 0x2f, 0x42, 0x69, 0x61, 0x73, 0x41, 0x64, 0x64, 0x2f, 0x52, 0x65,
  0x61, 0x64, 0x56, 0x61, 0x72, 0x69, 0x61, 0x62, 0x6c, 0x65, 0x4f, 0x70,
  0x00, 0x00, 0x00, 0x00, 0x01, 0x00, 0x00, 0x00, 0x10, 0x00, 0x00, 0x00,
  0x26, 0xff, 0xff, 0xff, 0x00, 0x00, 0x00, 0x01, 0x14, 0x00, 0x00, 0x00,
  0x34, 0x00, 0x00, 0x00, 0x04, 0x00, 0x00, 0x00, 0x00, 0x00, 0x00, 0x09,
  0x44, 0x00, 0x00, 0x00, 0x94, 0xfe, 0xff, 0xff, 0x08, 0x00, 0x00, 0x00,
  0x14, 0x00, 0x00, 0x00, 0x01, 0x00, 0x00, 0x00, 0x00, 0x00, 0x00, 0x00,
  0x00, 0x00, 0x00, 0x00, 0x00, 0x00, 0x00, 0x00, 0x01, 0x00, 0x00, 0x00,
  0xa8, 0xab, 0x87, 0x3c, 0x17, 0x00, 0x00, 0x00, 0x73, 0x65, 0x71, 0x75,
  0x65, 0x6e, 0x74, 0x69, 0x61, 0x6c, 0x2f, 0x64, 0x65, 0x6e, 0x73, 0x65,
  0x2f, 0x4d, 0x61, 0x74, 0x4d, 0x75, 0x6c, 0x00, 0x02, 0x00, 0x00, 0x00,
  0x09, 0x00, 0x00, 0x00, 0x90, 0x00, 0x00, 0x00, 0x8e, 0xff, 0xff, 0xff,
  0x00, 0x00, 0x00, 0x01, 0x14, 0x00, 0x00, 0x00, 0x30, 0x00, 0x00, 0x00,
  0x03, 0x00, 0x00, 0x00, 0x00, 0x00, 0x00, 0x02, 0x50, 0x00, 0x00, 0x00,
  0xfc, 0xfe, 0xff, 0xff, 0x08, 0x00, 0x00, 0x00, 0x10, 0x00, 0x00, 0x00,
  0x01, 0x00, 0x00, 0x00, 0x00, 0x00, 0x00, 0x00, 0x00, 0x00, 0x00, 0x00,
  0x01, 0x00, 0x00, 0x00, 0x68, 0xa6, 0x9e, 0x3d, 0x27, 0x00, 0x00, 0x00,
  0x73, 0x65, 0x71, 0x75, 0x65, 0x6e, 0x74, 0x69, 0x61, 0x6c, 0x2f, 0x64,
  0x65, 0x6e, 0x73, 0x65, 0x2f, 0x42, 0x69, 0x61, 0x73, 0x41, 0x64, 0x64,
  0x2f, 0x52, 0x65, 0x61, 0x64, 0x56, 0x61, 0x72, 0x69, 0x61, 0x62, 0x6c,
  0x65, 0x4f, 0x70, 0x00, 0x01, 0x00, 0x00, 0x00, 0x09, 0x00, 0x00, 0x00,
  0x00, 0x00, 0x16, 0x00, 0x1c, 0x00, 0x18, 0x00, 0x17, 0x00, 0x10, 0x00,
  0x0c, 0x00, 0x08, 0x00, 0x00, 0x00, 0x00, 0x00, 0x00, 0x00, 0x07, 0x00,
  0x16, 0x00, 0x00, 0x00, 0x00, 0x00, 0x00, 0x01, 0x18, 0x00, 0x00, 0x00,
  0x18, 0x00, 0x00, 0x00, 0x02, 0x00, 0x00, 0x00, 0x00, 0x00, 0x00, 0x02,
  0x2c, 0x00, 0x00, 0x00, 0x04, 0x00, 0x04, 0x00, 0x04, 0x00, 0x00, 0x00,
  0x18, 0x00, 0x00, 0x00, 0x73, 0x65, 0x71, 0x75, 0x65, 0x6e, 0x74, 0x69,
  0x61, 0x6c, 0x2f, 0x66, 0x6c, 0x61, 0x74, 0x74, 0x65, 0x6e, 0x2f, 0x43,
  0x6f, 0x6e, 0x73, 0x74, 0x00, 0x00, 0x00, 0x00, 0x01, 0x00, 0x00, 0x00,
  0x02, 0x00, 0x00, 0x00, 0x00, 0x00, 0x16, 0x00, 0x20, 0x00, 0x1c, 0x00,
  0x1b, 0x00, 0x14, 0x00, 0x10, 0x00, 0x0c, 0x00, 0x00, 0x00, 0x00, 0x00,
  0x08, 0x00, 0x07, 0x00, 0x16, 0x00, 0x00, 0x00, 0x00, 0x00, 0x00, 0x01,
  0x18, 0x00, 0x00, 0x00, 0x34, 0x00, 0x00, 0x00, 0x54, 0x00, 0x00, 0x00,
  0x01, 0x00, 0x00, 0x00, 0x00, 0x00, 0x00, 0x09, 0x6c, 0x00, 0x00, 0x00,
  0x04, 0x00, 0x00, 0x00, 0xff, 0xff, 0xff, 0xff, 0x03, 0x00, 0x00, 0x00,
  0x03, 0x00, 0x00, 0x00, 0x02, 0x00, 0x00, 0x00, 0x0c, 0x00, 0x0c, 0x00,
  0x00, 0x00, 0x00, 0x00, 0x08, 0x00, 0x04, 0x00, 0x0c, 0x00, 0x00, 0x00,
  0x08, 0x00, 0x00, 0x00, 0x14, 0x00, 0x00, 0x00, 0x01, 0x00, 0x00, 0x00,
  0x80, 0xff, 0xff, 0xff, 0xff, 0xff, 0xff, 0xff, 0x00, 0x00, 0x00, 0x00,
  0x01, 0x00, 0x00, 0x00, 0x00, 0x00, 0x80, 0x3f, 0x1e, 0x00, 0x00, 0x00,
  0x73, 0x65, 0x72, 0x76, 0x69, 0x6e, 0x67, 0x5f, 0x64, 0x65, 0x66, 0x61,
  0x75, 0x6c, 0x74, 0x5f, 0x63, 0x6f, 0x6e, 0x76, 0x32, 0x64, 0x5f, 0x69,
  0x6e, 0x70, 0x75, 0x74, 0x3a, 0x30, 0x00, 0x00, 0x04, 0x00, 0x00, 0x00,
  0x01, 0x00, 0x00, 0x00, 0x03, 0x00, 0x00, 0x00, 0x03, 0x00, 0x00, 0x00,
  0x02, 0x00, 0x00, 0x00, 0x03, 0x00, 0x00, 0x00, 0x40, 0x00, 0x00, 0x00,
  0x24, 0x00, 0x00, 0x00, 0x04, 0x00, 0x00, 0x00, 0xd8, 0xff, 0xff, 0xff,
  0x09, 0x00, 0x00, 0x00, 0x04, 0x00, 0x00, 0x00, 0x00, 0x00, 0x00, 0x09,
  0x0c, 0x00, 0x0c, 0x00, 0x0b, 0x00, 0x00, 0x00, 0x00, 0x00, 0x04, 0x00,
  0x0c, 0x00, 0x00, 0x00, 0x16, 0x00, 0x00, 0x00, 0x00, 0x00, 0x00, 0x16,
  0x0c, 0x00, 0x10, 0x00, 0x0f, 0x00, 0x00, 0x00, 0x08, 0x00, 0x04, 0x00,
  0x0c, 0x00, 0x00, 0x00, 0x03, 0x00, 0x00, 0x00, 0x03, 0x00, 0x00, 0x00,
  0x00, 0x00, 0x00, 0x03
};

#endif
