#ifndef MODEL_DATA_H
#define MODEL_DATA_H

const unsigned int model_len = 4216;
__attribute__((aligned(8))) const unsigned char model_data[] = {
  0x1c, 0x00, 0x00, 0x00, 0x54, 0x46, 0x4c, 0x33, 0x14, 0x00, 0x20, 0x00,
  0x1c, 0x00, 0x18, 0x00, 0x14, 0x00, 0x10, 0x00, 0x0c, 0x00, 0x00, 0x00,
  0x08, 0x00, 0x04, 0x00, 0x14, 0x00, 0x00, 0x00, 0x1c, 0x00, 0x00, 0x00,
  0x88, 0x00, 0x00, 0x00, 0xe0, 0x00, 0x00, 0x00, 0x84, 0x08, 0x00, 0x00,
  0x94, 0x08, 0x00, 0x00, 0xf0, 0x0f, 0x00, 0x00, 0x03, 0x00, 0x00, 0x00,
  0x01, 0x00, 0x00, 0x00, 0x04, 0x00, 0x00, 0x00, 0xee, 0xf6, 0xff, 0xff,
  0x0c, 0x00, 0x00, 0x00, 0x1c, 0x00, 0x00, 0x00, 0x38, 0x00, 0x00, 0x00,
  0x0f, 0x00, 0x00, 0x00, 0x73, 0x65, 0x72, 0x76, 0x69, 0x6e, 0x67, 0x5f,
  0x64, 0x65, 0x66, 0x61, 0x75, 0x6c, 0x74, 0x00, 0x01, 0x00, 0x00, 0x00,
  0x04, 0x00, 0x00, 0x00, 0x94, 0xff, 0xff, 0xff, 0x08, 0x00, 0x00, 0x00,
  0x04, 0x00, 0x00, 0x00, 0x05, 0x00, 0x00, 0x00, 0x64, 0x65, 0x6e, 0x73,
  0x65, 0x00, 0x00, 0x00, 0x01, 0x00, 0x00, 0x00, 0x04, 0x00, 0x00, 0x00,
  0x02, 0xf8, 0xff, 0xff, 0x04, 0x00, 0x00, 0x00, 0x0c, 0x00, 0x00, 0x00,
  0x63, 0x6f, 0x6e, 0x76, 0x32, 0x64, 0x5f, 0x69, 0x6e, 0x70, 0x75, 0x74,
  0x00, 0x00, 0x00, 0x00, 0x02, 0x00, 0x00, 0x00, 0x34, 0x00, 0x00, 0x00,
  0x04, 0x00, 0x00, 0x00, 0xdc, 0xff, 0xff, 0xff, 0x0b, 0x00, 0x00, 0x00,
  0x04, 0x00, 0x00, 0x00, 0x13, 0x00, 0x00, 0x00, 0x43, 0x4f, 0x4e, 0x56,
  0x45, 0x52, 0x53, 0x49, 0x4f, 0x4e, 0x5f, 0x4d, 0x45, 0x54, 0x41, 0x44,
  0x41, 0x54, 0x41, 0x00, 0x08, 0x00, 0x0c, 0x00, 0x08, 0x00, 0x04, 0x00,
  0x08, 0x00, 0x00, 0x00, 0x0a, 0x00, 0x00, 0x00, 0x04, 0x00, 0x00, 0x00,
  0x13, 0x00, 0x00, 0x00, 0x6d, 0x69, 0x6e, 0x5f, 0x72, 0x75, 0x6e, 0x74,
  0x69, 0x6d, 0x65, 0x5f, 0x76, 0x65, 0x72, 0x73, 0x69, 0x6f, 0x6e, 0x00,
  0x0c, 0x00, 0x00, 0x00, 0xa0, 0x07, 0x00, 0x00, 0x98, 0x07, 0x00, 0x00,
  0x80, 0x07, 0x00, 0x00, 0x44, 0x07, 0x00, 0x00, 0x24, 0x02, 0x00, 0x00,
  0xd4, 0x01, 0x00, 0x00, 0xa4, 0x00, 0x00, 0x00, 0x9c, 0x00, 0x00, 0x00,
  0x94, 0x00, 0x00, 0x00, 0x8c, 0x00, 0x00, 0x00, 0x6c, 0x00, 0x00, 0x00,
  0x04, 0x00, 0x00, 0x00, 0xae, 0xf8, 0xff, 0xff, 0x04, 0x00, 0x00, 0x00,
  0x58, 0x00, 0x00, 0x00, 0x0c, 0x00, 0x00, 0x00, 0x08, 0x00, 0x0e, 0x00,
  0x08, 0x00, 0x04, 0x00, 0x08, 0x00, 0x00, 0x00, 0x10, 0x00, 0x00, 0x00,
  0x28, 0x00, 0x00, 0x00, 0x00, 0x00, 0x06, 0x00, 0x08, 0x00, 0x04, 0x00,
  0x06, 0x00, 0x00, 0x00, 0x04, 0x00, 0x00, 0x00, 0x01, 0x00, 0x00, 0x00,
  0xeb, 0x03, 0x00, 0x00, 0x00, 0x00, 0x0a, 0x00, 0x10, 0x00, 0x0c, 0x00,
  0x08, 0x00, 0x04, 0x00, 0x0a, 0x00, 0x00, 0x00, 0x01, 0x00, 0x00, 0x00,
  0x02, 0x00, 0x00, 0x00, 0x04, 0x00, 0x00, 0x00, 0x06, 0x00, 0x00, 0x00,
  0x32, 0x2e, 0x31, 0x30, 0x2e, 0x31, 0x00, 0x00, 0x12, 0xf9, 0xff, 0xff,
  0x04, 0x00, 0x00, 0x00, 0x10, 0x00, 0x00, 0x00, 0x31, 0x2e, 0x31, 0x34,
  0x2e, 0x30, 0x00, 0x00, 0x00, 0x00, 0x00, 0x00, 0x00, 0x00, 0x00, 0x00,
  0x7c, 0xf2, 0xff, 0xff, 0x80, 0xf2, 0xff, 0xff, 0x84, 0xf2, 0xff, 0xff,
  0x3a, 0xf9, 0xff, 0xff, 0x04, 0x00, 0x00, 0x00, 0x20, 0x01, 0x00, 0x00,
  0xb2, 0x81, 0x46, 0x23, 0xde, 0x4b, 0xf4, 0x2c, 0x5c, 0x03, 0x4f, 0x2d,
  0x11, 0x26, 0xd3, 0x13, 0x27, 0x0c, 0x7f, 0x5d, 0x77, 0x6e, 0xa6, 0xc1,
  0x8d, 0x85, 0x5c, 0x66, 0x50, 0x51, 0x41, 0x14, 0x4c, 0x62, 0xcb, 0xe1,
  0xef, 0x3b, 0x43, 0xaf, 0xa7, 0x51, 0x57, 0xa9, 0x76, 0x81, 0x16, 0xcc,
  0xd0, 0x4d, 0x3a, 0xb3, 0xbd, 0x47, 0x32, 0x36, 0x0f, 0xaf, 0x52, 0x47,
  0x0e, 0xed, 0x7f, 0x41, 0xd9, 0xd0, 0xe1, 0xf0, 0xe2, 0x32, 0x14, 0xec,
  0x27, 0xfc, 0xb9, 0x40, 0xe1, 0x30, 0x22, 0xf4, 0xb0, 0x26, 0x7f, 0xa5,
  0xfa, 0xff, 0xb2, 0x2e, 0x2f, 0x90, 0xd4, 0x2b, 0x85, 0x5a, 0xcb, 0x2b,
  0x93, 0x55, 0xd8, 0x16, 0x8d, 0x5c, 0x06, 0xf8, 0xf1, 0x7f, 0xdd, 0x0e,
  0xed, 0x29, 0xe5, 0x1a, 0x0a, 0x18, 0xde, 0x27, 0x7f, 0x6a, 0xfa, 0xab,
  0xd7, 0x10, 0xfa, 0xfc, 0x2e, 0x2a, 0x3a, 0x3a, 0x7f, 0x4f, 0xcb, 0xa0,
  0x3c, 0x24, 0x65, 0x3c, 0x5d, 0x34, 0x1d, 0xec, 0x11, 0xd6, 0x1a, 0x2c,
  0x1f, 0xd3, 0x7c, 0x34, 0xb1, 0x1f, 0xd8, 0x81, 0x2d, 0xd6, 0x4c, 0xeb,
  0x0e, 0x2c, 0xed, 0x23, 0x0e, 0xbb, 0x36, 0xdd, 0x30, 0x22, 0xbe, 0x68,
  0x9b, 0x55, 0xaf, 0x51, 0xd3, 0xf2, 0x4c, 0x81, 0x57, 0x9c, 0x47, 0xb0,
  0xeb, 0xa1, 0x15, 0x4b, 0xf7, 0x2f, 0x1d, 0x1a, 0x7f, 0x53, 0xe1, 0xe8,
  0xf4, 0x04, 0xef, 0xdf, 0xb2, 0x21, 0x81, 0x2a, 0x10, 0x0e, 0x15, 0xd8,
  0xc5, 0x1b, 0xc2, 0x4d, 0x0d, 0x37, 0xee, 0x29, 0x35, 0x06, 0xf6, 0x28,
  0x32, 0xb6, 0xfe, 0x04, 0x05, 0x11, 0xf4, 0x38, 0x0b, 0x81, 0xc4, 0x37,
  0xe9, 0x30, 0xd2, 0x04, 0x38, 0xba, 0x5b, 0x18, 0x3a, 0x0c, 0x3d, 0x1e,
  0xf4, 0xd0, 0xcf, 0xad, 0x3d, 0x33, 0x40, 0x1a, 0x7f, 0x68, 0x09, 0x12,
  0x30, 0x82, 0x1d, 0xfc, 0x81, 0x3e, 0x2d, 0xc0, 0x13, 0x32, 0xb8, 0x2d,
  0x4a, 0xe3, 0x05, 0x2e, 0x8e, 0x3a, 0x22, 0x61, 0xf4, 0x9e, 0xfd, 0xc9,
  0x7f, 0x4d, 0xf6, 0xed, 0x63, 0xfe, 0x31, 0xa7, 0x77, 0x1c, 0x1c, 0x11,
  0x66, 0xfa, 0xff, 0xff, 0x04, 0x00, 0x00, 0x00, 0x40, 0x00, 0x00, 0x00,
  0x22, 0x00, 0x00, 0x00, 0x04, 0x00, 0x00, 0x00, 0x00, 0x00, 0x00, 0x00,
  0x24, 0x00, 0x00, 0x00, 0x0a, 0x00, 0x00, 0x00, 0x10, 0x00, 0x00, 0x00,
  0x22, 0x00, 0x00, 0x00, 0x01, 0x00, 0x00, 0x00, 0x32, 0x00, 0x00, 0x00,
  0x07, 0x00, 0x00, 0x00, 0x2d, 0x00, 0x00, 0x00, 0x13, 0x00, 0x00, 0x00,
  0x36, 0x00, 0x00, 0x00, 0x10, 0x00, 0x00, 0x00, 0x23, 0x00, 0x00, 0x00,
  0x20, 0x00, 0x00, 0x00, 0xb2, 0xfa, 0xff, 0xff, 0x04, 0x00, 0x00, 0x00,
  0x10, 0x05, 0x00, 0x00, 0xf2, 0xf6, 0x06, 0xf9, 0x12, 0x08, 0x04, 0x0a,
  0x14, 0xf0, 0x17, 0xfe, 0xf0, 0xf1, 0x01, 0x08, 0x05, 0x0b, 0xee, 0x09,
  0x10, 0x0d, 0xd9, 0xf1, 0x32, 0xf7, 0xf2, 0xc3, 0xfc, 0x02, 0x08, 0xf8,
  0xf7, 0x06, 0xfe, 0x08, 0x03, 0xd3, 0xdf, 0x05, 0xf0, 0xee, 0x14, 0xf4,
  0xf7, 0x10, 0x1a, 0x05, 0x05, 0x00, 0x16, 0x0e, 0x50, 0xf9, 0xe9, 0x0b,
  0x0d, 0x04, 0x03, 0x04, 0x09, 0x0b, 0x08, 0xef, 0xf6, 0xff, 0xe6, 0xf7,
  0x00, 0x00, 0x03, 0x05, 0xfc, 0x12, 0x1e, 0xe3, 0x02, 0xf6, 0x01, 0x00,
  0x0c, 0x04, 0xf1, 0x2b, 0xdb, 0xee, 0xe9, 0x03, 0xfa, 0xe9, 0xac, 0xf0,
  0x02, 0xe9, 0x14, 0xff, 0x03, 0x09, 0x02, 0xfc, 0x09, 0x12, 0xf2, 0x10,
  0xf6, 0xff, 0x02, 0x36, 0x10, 0xe3, 0x03, 0xfa, 0x2b, 0x0d, 0x09, 0xff,
  0x27, 0x0f, 0x10, 0x08, 0xf8, 0xee, 0x0a, 0xff, 0x08, 0xfd, 0xf8, 0xff,
  0x06, 0xf7, 0x06, 0x02, 0xf3, 0x08, 0xfa, 0x11, 0xe3, 0xfb, 0x0c, 0xf7,
  0x01, 0xf7, 0x0f, 0x0d, 0xed, 0xfa, 0xf9, 0xfb, 0xdd, 0x16, 0x07, 0x09,
  0xfa, 0xf2, 0xf7, 0x15, 0x0c, 0xf0, 0xea, 0x03, 0x04, 0xfd, 0x21, 0x22,
  0x04, 0xf4, 0x12, 0xea, 0xe5, 0x00, 0xe5, 0x11, 0xc7, 0x02, 0xdc, 0x12,
  0xf2, 0x00, 0x07, 0x03, 0xef, 0x13, 0x01, 0x1e, 0x04, 0xf6, 0xf8, 0x0c,
  0x0a, 0xf9, 0x2e, 0x05, 0x00, 0xfb, 0x06, 0x05, 0x14, 0xfa, 0x14, 0xd8,
  0x04, 0x02, 0x0a, 0xfc, 0x07, 0x09, 0x00, 0xe9, 0xeb, 0xd6, 0x13, 0xf1,
  0xe9, 0x05, 0x04, 0x08, 0xeb, 0xf7, 0x19, 0x07, 0xe0, 0x04, 0x02, 0xfc,
  0xfb, 0x08, 0x04, 0x02, 0x09, 0xe4, 0xf7, 0xff, 0x0a, 0xeb, 0x13, 0xd8,
  0xee, 0xf7, 0xe8, 0x14, 0x01, 0x06, 0x03, 0xf6, 0xfb, 0x06, 0x0f, 0xed,
  0x19, 0xff, 0xff, 0xf5, 0xfc, 0x10, 0xe6, 0xea, 0xfc, 0xf7, 0x05, 0xf7,
  0xf1, 0xeb, 0x0d, 0x09, 0xfa, 0x03, 0xf1, 0x02, 0x00, 0xff, 0x0f, 0xe3,
  0x03, 0x0c, 0xec, 0x11, 0x18, 0xfa, 0x21, 0xe7, 0x0c, 0xe4, 0x10, 0x0f,
  0xe7, 0x09, 0x09, 0x01, 0x0d, 0xec, 0xee, 0x05, 0xf1, 0xea, 0x04, 0x06,
  0xf9, 0x0d, 0xcc, 0xe0, 0x01, 0x14, 0xe2, 0x02, 0x05, 0x0a, 0x14, 0x20,
  0x16, 0xd3, 0xef, 0x1e, 0xb2, 0x05, 0x15, 0x00, 0x19, 0xcb, 0xff, 0xd2,
  0x1a, 0x06, 0xfd, 0x00, 0xe5, 0xd6, 0x12, 0xe9, 0x17, 0x19, 0x06, 0x03,
  0x0e, 0x05, 0x09, 0x0c, 0x00, 0x01, 0x0e, 0x0a, 0x1d, 0x0d, 0x06, 0x1a,
  0xb3, 0x04, 0xfc, 0x06, 0x01, 0xfe, 0x05, 0x0a, 0xe9, 0xb3, 0x03, 0x16,
  0xdd, 0x08, 0x0a, 0xfe, 0x05, 0x17, 0xe9, 0x05, 0xf7, 0xd6, 0x08, 0x08,
  0xf9, 0x06, 0x28, 0xf7, 0x16, 0xd0, 0xe8, 0x0a, 0xf7, 0x0d, 0x03, 0x1c,
  0xc8, 0x0b, 0xed, 0xe3, 0x0b, 0x02, 0x03, 0x04, 0xf9, 0xf7, 0x03, 0x01,
  0xf8, 0xf4, 0x0c, 0xca, 0xe7, 0x09, 0x19, 0x11, 0xdf, 0xee, 0x13, 0x06,
  0xfa, 0x00, 0xee, 0x17, 0x0b, 0xff, 0xf7, 0x04, 0x01, 0xed, 0xed, 0x10,
  0xe8, 0xf9, 0xf5, 0xf7, 0xfc, 0x11, 0xf0, 0x05, 0xf5, 0x0d, 0x04, 0x0c,
  0x14, 0xe8, 0x09, 0xfe, 0x05, 0x00, 0x07, 0xfe, 0x03, 0xfc, 0xfc, 0x18,
  0x01, 0xf0, 0xf6, 0xfc, 0xf1, 0x10, 0x0c, 0xe9, 0xd2, 0x04, 0x21, 0xc1,
  0xe1, 0x23, 0x06, 0xf8, 0x0f, 0xcd, 0xe3, 0xe5, 0x05, 0x0e, 0xd4, 0x0b,
  0xfb, 0x10, 0xf4, 0xfd, 0x15, 0x07, 0xfc, 0x1b, 0xec, 0xeb, 0xf7, 0x08,
  0xf2, 0xd8, 0xea, 0x01, 0x12, 0x0b, 0xfb, 0x07, 0xf6, 0xf6, 0x06, 0x00,
  0x09, 0xde, 0x05, 0x07, 0x02, 0x03, 0x02, 0x0b, 0x17, 0x19, 0xea, 0xf9,
  0x0e, 0xd5, 0xf3, 0x0b, 0x01, 0xd7, 0xfa, 0xfe, 0x0e, 0x0d, 0xe1, 0xfb,
  0xfe, 0x07, 0x14, 0x18, 0x17, 0x1c, 0x15, 0xe1, 0xff, 0x01, 0x0c, 0x0f,
  0x12, 0xd7, 0xe0, 0x07, 0xf2, 0x14, 0x02, 0xf2, 0xf5, 0xfb, 0x04, 0x18,
  0x09, 0xfa, 0x10, 0xfd, 0xf7, 0xf1, 0x05, 0x0b, 0xdc, 0x00, 0xea, 0xfe,
  0x03, 0xcb, 0xf0, 0x0b, 0x0f, 0x12, 0x06, 0xec, 0xdd, 0x04, 0xee, 0xfe,
  0x07, 0xec, 0x11, 0x04, 0xf9, 0xf2, 0xf8, 0xe6, 0x09, 0xfd, 0x12, 0xe9,
  0x0e, 0x07, 0xe1, 0xf7, 0xfd, 0x09, 0xf3, 0xf6, 0xfd, 0x04, 0x02, 0xf7,
  0x12, 0x0c, 0xf9, 0xf3, 0xfa, 0xf6, 0x10, 0x0e, 0xf3, 0xea, 0xc5, 0x0b,
  0xd8, 0x13, 0x3c, 0xe0, 0xd7, 0x02, 0xe1, 0x0f, 0xf0, 0x10, 0x0b, 0xf0,
  0xff, 0xf5, 0x04, 0xf3, 0x14, 0x0c, 0x0a, 0xaf, 0x1a, 0xfc, 0x11, 0xfa,
  0xfc, 0xfc, 0x9b, 0xfd, 0xe0, 0x1f, 0x03, 0xe3, 0xc5, 0xfb, 0xf1, 0xfd,
  0x0b, 0x11, 0xef, 0x09, 0x06, 0x03, 0x01, 0xf7, 0x05, 0x0d, 0xfb, 0xfd,
  0xf9, 0x0c, 0xed, 0xee, 0x00, 0xe1, 0xfd, 0xfb, 0x14, 0x1a, 0x0c, 0xe9,
  0x05, 0xff, 0x1b, 0x00, 0x02, 0xea, 0x0a, 0xfb, 0xd6, 0xfe, 0x0a, 0x0c,
  0x10, 0x0a, 0xd3, 0xf3, 0x00, 0xf7, 0x14, 0x01, 0xf5, 0xfd, 0x02, 0x0a,
  0x0c, 0x04, 0xd9, 0x23, 0x06, 0x03, 0xf2, 0xff, 0x25, 0xfb, 0xf2, 0x05,
  0xf9, 0xf9, 0xd4, 0xeb, 0xf3, 0x11, 0x11, 0xf1, 0xf2, 0xdf, 0x15, 0x08,
  0x00, 0x20, 0xbe, 0x0d, 0x08, 0xf8, 0x0f, 0xfc, 0xed, 0x06, 0xf2, 0x0d,
  0xd9, 0x13, 0x06, 0xfa, 0x0c, 0x02, 0x04, 0x05, 0xee, 0xdf, 0x09, 0xef,
  0xde, 0x09, 0x0c, 0xe3, 0x06, 0xf6, 0x04, 0x04, 0x0d, 0xe7, 0xd6, 0xfc,
  0x20, 0xf9, 0x1f, 0x24, 0xd2, 0xed, 0xf8, 0x0a, 0xf2, 0xfc, 0xff, 0x10,
  0xcb, 0xfe, 0xdd, 0x12, 0xfa, 0x12, 0xfd, 0x00, 0xd1, 0x1f, 0xf8, 0x07,
  0xf1, 0xfc, 0xef, 0xdb, 0x16, 0xf3, 0x16, 0xfe, 0xb9, 0xfb, 0x03, 0xe0,
  0x0e, 0xff, 0x10, 0xb2, 0x0a, 0xfa, 0x11, 0x0b, 0xfa, 0x0b, 0x0b, 0xfb,
  0xf9, 0x08, 0x16, 0xf4, 0xfa, 0xf8, 0xeb, 0x08, 0xef, 0xef, 0x06, 0xfb,
  0xe0, 0x0b, 0x21, 0x0a, 0x04, 0x1e, 0x02, 0xfb, 0xff, 0xee, 0x0b, 0xfb,
  0x0a, 0x00, 0x16, 0xcc, 0x03, 0xe7, 0xf2, 0xff, 0xfc, 0xec, 0x08, 0xf9,
  0xf8, 0x00, 0x00, 0xeb, 0xe4, 0x03, 0x05, 0xe2, 0xe6, 0x0e, 0xf5, 0xf7,
  0xf0, 0x0a, 0x04, 0xbd, 0x07, 0xfb, 0x15, 0xfe, 0xf6, 0xea, 0x07, 0x0f,
  0xef, 0xff, 0x2d, 0xe5, 0xff, 0xec, 0xe6, 0xfe, 0x02, 0xd8, 0x01, 0x01,
  0x0f, 0xe0, 0x00, 0x0c, 0x09, 0x07, 0x0a, 0x09, 0xf9, 0xf9, 0xf7, 0xed,
  0xe9, 0x0a, 0xf9, 0x05, 0xec, 0xf8, 0x00, 0xe3, 0x16, 0x0b, 0x31, 0xcb,
  0xc3, 0x0e, 0xbb, 0xf1, 0x1e, 0x13, 0x1f, 0x00, 0x05, 0x00, 0xf7, 0x12,
  0x0d, 0xc4, 0x06, 0x05, 0xfe, 0xe6, 0xdd, 0x12, 0xfd, 0xee, 0x08, 0xf1,
  0xf5, 0x0a, 0xf6, 0x01, 0xc3, 0x00, 0x07, 0x11, 0xc2, 0x05, 0x06, 0x13,
  0xfd, 0x0b, 0x05, 0x03, 0xa7, 0x07, 0xfd, 0x07, 0x06, 0x0a, 0x0b, 0x0b,
  0x10, 0xdd, 0xf2, 0x09, 0xfc, 0x02, 0xff, 0x03, 0xf4, 0x0b, 0xff, 0x12,
  0x05, 0xd6, 0xdb, 0xab, 0x04, 0x00, 0x06, 0xfe, 0x0b, 0x2a, 0xf9, 0xf6,
  0x01, 0x0e, 0x19, 0x0a, 0xcb, 0xe3, 0x02, 0x09, 0x0e, 0xff, 0xf6, 0x00,
  0xec, 0xff, 0x24, 0xed, 0xf3, 0x18, 0xf6, 0x1c, 0xd7, 0x0e, 0x1a, 0xe1,
  0xf4, 0x0a, 0x08, 0xf7, 0xd4, 0xf2, 0x0a, 0x1a, 0x13, 0xf6, 0xfb, 0xf7,
  0x06, 0xd5, 0x0d, 0x06, 0xdd, 0x01, 0x07, 0x0b, 0x0d, 0x0c, 0xb2, 0x10,
  0x06, 0x21, 0xc8, 0xfb, 0x06, 0x04, 0x07, 0x01, 0x03, 0xea, 0xf6, 0xf8,
  0xda, 0x03, 0x00, 0xff, 0x10, 0xef, 0x02, 0xf5, 0xeb, 0x12, 0xdc, 0xff,
  0xd5, 0x00, 0x0e, 0xef, 0x1c, 0x17, 0xf5, 0x10, 0xff, 0x07, 0x09, 0xfa,
  0x0e, 0x10, 0xe9, 0x07, 0x10, 0x19, 0x09, 0xf5, 0xff, 0xf4, 0xc4, 0x13,
  0xf4, 0x09, 0x08, 0x01, 0xff, 0xae, 0xe1, 0xe2, 0x2d, 0xf6, 0x01, 0xf7,
  0x01, 0xe1, 0x05, 0x01, 0x13, 0xa4, 0x07, 0x0d, 0x0c, 0x07, 0xfc, 0x0b,
  0x0f, 0xf2, 0xfc, 0x04, 0x04, 0x07, 0xea, 0x0b, 0x00, 0xff, 0xf1, 0x01,
  0x18, 0x14, 0xbb, 0xda, 0xeb, 0x29, 0x0d, 0x02, 0x05, 0x0c, 0x0b, 0xf2,
  0x00, 0x00, 0x11, 0x0a, 0x10, 0xda, 0xed, 0xff, 0x01, 0x01, 0xfb, 0xdb,
  0xfd, 0x04, 0xfa, 0xea, 0xdd, 0xf7, 0x04, 0xe8, 0xe5, 0xeb, 0xf3, 0x12,
  0xdd, 0x0a, 0x05, 0xf9, 0x01, 0xf6, 0xeb, 0xdd, 0x1b, 0x14, 0x0a, 0xec,
  0x03, 0x11, 0xc7, 0x03, 0x0a, 0xe4, 0x01, 0x0a, 0x0a, 0x04, 0xfa, 0xeb,
  0x06, 0xbb, 0x10, 0xcc, 0x09, 0x01, 0xfb, 0x0b, 0x07, 0xfe, 0x07, 0xde,
  0xe0, 0xfd, 0xfd, 0x05, 0x04, 0x0d, 0xf0, 0x0a, 0xf0, 0xe8, 0x81, 0xdb,
  0x33, 0xaf, 0xe1, 0x1b, 0x35, 0x0c, 0x25, 0x0e, 0x02, 0x00, 0x11, 0x0a,
  0xf9, 0x03, 0x12, 0xd4, 0xe8, 0x1c, 0x17, 0xf2, 0xf8, 0x0c, 0xed, 0xe8,
  0x0c, 0xf9, 0x04, 0x07, 0x07, 0xf3, 0xc5, 0xea, 0xd6, 0x12, 0x06, 0xf3,
  0xf8, 0xfc, 0xe3, 0x0a, 0xfb, 0x10, 0xc6, 0x0e, 0x0e, 0xfa, 0x09, 0xfb,
  0x07, 0x0f, 0xee, 0xf5, 0x05, 0x09, 0xe9, 0x0b, 0x0b, 0xf8, 0x03, 0xed,
  0xfd, 0x04, 0xb1, 0xfe, 0xf9, 0x1b, 0xff, 0x03, 0x2b, 0x05, 0xfa, 0xfd,
  0x03, 0x09, 0xfe, 0x0d, 0x08, 0x0a, 0xca, 0x00, 0x06, 0x0b, 0xf6, 0xf0,
  0xd1, 0x06, 0xe4, 0xda, 0x2a, 0xf3, 0xfb, 0xff, 0x10, 0x03, 0xd0, 0x04,
  0x1a, 0x0a, 0x06, 0xfe, 0x07, 0x04, 0xce, 0x09, 0xe5, 0x27, 0xf8, 0x07,
  0x04, 0xf5, 0x10, 0xe2, 0x0c, 0x11, 0xd6, 0x05, 0x0e, 0x06, 0x00, 0xf7,
  0xe6, 0xfe, 0xee, 0x13, 0xce, 0xff, 0xff, 0xff, 0x04, 0x00, 0x00, 0x00,
  0x24, 0x00, 0x00, 0x00, 0x00, 0x00, 0x00, 0x00, 0xff, 0xff, 0xff, 0xff,
  0x01, 0x00, 0x00, 0x00, 0xfe, 0xff, 0xff, 0xff, 0x03, 0x00, 0x00, 0x00,
  0xfe, 0xff, 0xff, 0xff, 0x00, 0x00, 0x00, 0x00, 0xff, 0xff, 0xff, 0xff,
  0x00, 0x00, 0x00, 0x00, 0x00, 0x00, 0x06, 0x00, 0x08, 0x00, 0x04, 0x00,
  0x06, 0x00, 0x00, 0x00, 0x04, 0x00, 0x00, 0x00, 0x08, 0x00, 0x00, 0x00,
  0xff, 0xff, 0xff, 0xff, 0x90, 0x00, 0x00, 0x00, 0x68, 0xf9, 0xff, 0xff,
  0x6c, 0xf9, 0xff, 0xff, 0x0f, 0x00, 0x00, 0x00, 0x4d, 0x4c, 0x49, 0x52,
  0x20, 0x43, 0x6f, 0x6e, 0x76, 0x65, 0x72, 0x74, 0x65, 0x64, 0x2e, 0x00,
  0x01, 0x00, 0x00, 0x00, 0x14, 0x00, 0x00, 0x00, 0x00, 0x00, 0x0e, 0x00,
  0x18, 0x00, 0x14, 0x00, 0x10, 0x00, 0x0c, 0x00, 0x08, 0x00, 0x04, 0x00,
  0x0e, 0x00, 0x00, 0x00, 0x14, 0x00, 0x00, 0x00, 0x1c, 0x00, 0x00, 0x00,
  0xf4, 0x00, 0x00, 0x00, 0xf8, 0x00, 0x00, 0x00, 0xfc, 0x00, 0x00, 0x00,
  0x04, 0x00, 0x00, 0x00, 0x6d, 0x61, 0x69, 0x6e, 0x00, 0x00, 0x00, 0x00,
  0x03, 0x00, 0x00, 0x00, 0x90, 0x00, 0x00, 0x00, 0x58, 0x00, 0x00, 0x00,
  0x14, 0x00, 0x00, 0x00, 0x00, 0x00, 0x0e, 0x00, 0x18, 0x00, 0x14, 0x00,
  0x10, 0x00, 0x0c, 0x00, 0x0b, 0x00, 0x04, 0x00, 0x0e, 0x00, 0x00, 0x00,
  0x14, 0x00, 0x00, 0x00, 0x00, 0x00, 0x00, 0x08, 0x10, 0x00, 0x00, 0x00,
  0x14, 0x00, 0x00, 0x00, 0x02, 0x00, 0x00, 0x00, 0xf8, 0xf9, 0xff, 0xff,
  0x01, 0x00, 0x00, 0x00, 0x08, 0x00, 0x00, 0x00, 0x03, 0x00, 0x00, 0x00,
  0x07, 0x00, 0x00, 0x00, 0x03, 0x00, 0x00, 0x00, 0x02, 0x00, 0x00, 0x00,
  0x00, 0x00, 0x0a, 0x00, 0x10, 0x00, 0x0c, 0x00, 0x08, 0x00, 0x04, 0x00,
  0x0a, 0x00, 0x00, 0x00, 0x0c, 0x00, 0x00, 0x00, 0x10, 0x00, 0x00, 0x00,
  0x01, 0x00, 0x00, 0x00, 0x01, 0x00, 0x00, 0x00, 0x07, 0x00, 0x00, 0x00,
  0x02, 0x00, 0x00, 0x00, 0x06, 0x00, 0x00, 0x00, 0x01, 0x00, 0x00, 0x00,
  0x00, 0x00, 0x0e, 0x00, 0x14, 0x00, 0x00, 0x00, 0x10, 0x00, 0x0c, 0x00,
  0x0b, 0x00, 0x04, 0x00, 0x0e, 0x00, 0x00, 0x00, 0x1c, 0x00, 0x00, 0x00,
  0x00, 0x00, 0x00, 0x01, 0x24, 0x00, 0x00, 0x00, 0x28, 0x00, 0x00, 0x00,
  0x0c, 0x00, 0x10, 0x00, 0x00, 0x00, 0x0c, 0x00, 0x08, 0x00, 0x07, 0x00,
  0x0c, 0x00, 0x00, 0x00, 0x00, 0x00, 0x00, 0x01, 0x01, 0x00, 0x00, 0x00,
  0x01, 0x00, 0x00, 0x00, 0x01, 0x00, 0x00, 0x00, 0x06, 0x00, 0x00, 0x00,
  0x03, 0x00, 0x00, 0x00, 0x00, 0x00, 0x00, 0x00, 0x05, 0x00, 0x00, 0x00,
  0x04, 0x00, 0x00, 0x00, 0x01, 0x00, 0x00, 0x00, 0x08, 0x00, 0x00, 0x00,
  0x01, 0x00, 0x00, 0x00, 0x00, 0x00, 0x00, 0x00, 0x09, 0x00, 0x00, 0x00,
  0x98, 0x05, 0x00, 0x00, 0x30, 0x05, 0x00, 0x00, 0xa4, 0x04, 0x00, 0x00,
  0x38, 0x04, 0x00, 0x00, 0x0c, 0x03, 0x00, 0x00, 0xe0, 0x01, 0x00, 0x00,
  0xfc, 0x00, 0x00, 0x00, 0x80, 0x00, 0x00, 0x00, 0x04, 0x00, 0x00, 0x00,
  0xa2, 0xfa, 0xff, 0xff, 0x00, 0x00, 0x00, 0x01, 0x18, 0x00, 0x00, 0x00,
  0x20, 0x00, 0x00, 0x00, 0x3c, 0x00, 0x00, 0x00, 0x09, 0x00, 0x00, 0x00,
  0x00, 0x00, 0x00, 0x09, 0x50, 0x00, 0x00, 0x00, 0x02, 0x00, 0x00, 0x00,
  0xff, 0xff, 0xff, 0xff, 0x09, 0x00, 0x00, 0x00, 0x84, 0xfa, 0xff, 0xff,
  0x08, 0x00, 0x00, 0x00, 0x10, 0x00, 0x00, 0x00, 0x01, 0x00, 0x00, 0x00,
  0x43, 0x00, 0x00, 0x00, 0x00, 0x00, 0x00, 0x00, 0x01, 0x00, 0x00, 0x00,
  0x81, 0x4b, 0x98, 0x41, 0x19, 0x00, 0x00, 0x00, 0x53, 0x74, 0x61, 0x74,
  0x65, 0x66, 0x75, 0x6c, 0x50, 0x61, 0x72, 0x74, 0x69, 0x74, 0x69, 0x6f,
  0x6e, 0x65, 0x64, 0x43, 0x61, 0x6c, 0x6c, 0x3a, 0x30, 0x00, 0x00, 0x00,
  0x02, 0x00, 0x00, 0x00, 0x01, 0x00, 0x00, 0x00, 0x09, 0x00, 0x00, 0x00,
  0x1a, 0xfb, 0xff, 0xff, 0x00, 0x00, 0x00, 0x01, 0x18, 0x00, 0x00, 0x00,
  0x20, 0x00, 0x00, 0x00, 0x3c, 0x00, 0x00, 0x00, 0x08, 0x00, 0x00, 0x00,
  0x00, 0x00, 0x00, 0x09, 0x50, 0x00, 0x00, 0x00, 0x02, 0x00, 0x00, 0x00,
  0xff, 0xff, 0xff, 0xff, 0x90, 0x00, 0x00, 0x00, 0xfc, 0xfa, 0xff, 0xff,
  0x08, 0x00, 0x00, 0x00, 0x10, 0x00, 0x00, 0x00, 0x01, 0x00, 0x00, 0x00,
  0x80, 0xff, 0xff, 0xff, 0xff, 0xff, 0xff, 0xff, 0x01, 0x00, 0x00, 0x00,
  0x65, 0x61, 0x9d, 0x40, 0x1a, 0x00, 0x00, 0x00, 0x73, 0x65, 0x71, 0x75,
  0x65, 0x6e, 0x74, 0x69, 0x61, 0x6c, 0x2f, 0x66, 0x6c, 0x61, 0x74, 0x74,
  0x65, 0x6e, 0x2f, 0x52, 0x65, 0x73, 0x68, 0x61, 0x70, 0x65, 0x00, 0x00,
  0x02, 0x00, 0x00, 0x00, 0x01, 0x00, 0x00, 0x00, 0x90, 0x00, 0x00, 0x00,
  0x92, 0xfb, 0xff, 0xff, 0x00, 0x00, 0x00, 0x01, 0x18, 0x00, 0x00, 0x00,
  0x28, 0x00, 0x00, 0x00, 0x44, 0x00, 0x00, 0x00, 0x07, 0x00, 0x00, 0x00,
  0x00, 0x00, 0x00, 0x09, 0xb0, 0x00, 0x00, 0x00, 0x04, 0x00, 0x00, 0x00,
  0xff, 0xff, 0xff, 0xff, 0x03, 0x00, 0x00, 0x00, 0x03, 0x00, 0x00, 0x00,
  0x10, 0x00, 0x00, 0x00, 0x7c, 0xfb, 0xff, 0xff, 0x08, 0x00, 0x00, 0x00,
  0x10, 0x00, 0x00, 0x00, 0x01, 0x00, 0x00, 0x00, 0x80, 0xff, 0xff, 0xff,
  0xff, 0xff, 0xff, 0xff, 0x01, 0x00, 0x00, 0x00, 0x65, 0x61, 0x9d, 0x40,
  0x72, 0x00, 0x00, 0x00, 0x73, 0x65, 0x71, 0x75, 0x65, 0x6e, 0x74, 0x69,
  0x61, 0x6c, 0x2f, 0x63, 0x6f, 0x6e, 0x76, 0x32, 0x64, 0x2f, 0x52, 0x65,
  0x6c, 0x75, 0x3b, 0x73, 0x65, 0x71, 0x75, 0x65, 0x6e, 0x74, 0x69, 0x61,
  0x6c, 0x2f, 0x63, 0x6f, 0x6e, 0x76, 0x32, 0x64, 0x2f, 0x42, 0x69, 0x61,
  0x73, 0x41, 0x64, 0x64, 0x3b, 0x73, 0x65, 0x71, 0x75, 0x65, 0x6e, 0x74,
  0x69, 0x61, 0x6c, 0x2f, 0x63, 0x6f, 0x6e, 0x76, 0x32, 0x64, 0x2f, 0x43,
  0x6f, 0x6e, 0x76, 0x32, 0x44, 0x3b, 0x73, 0x65, 0x71, 0x75, 0x65, 0x6e,
  0x74, 0x69, 0x61, 0x6c, 0x2f, 0x63, 0x6f, 0x6e, 0x76, 0x32, 0x64, 0x2f,
  0x42, 0x69, 0x61, 0x73, 0x41, 0x64, 0x64, 0x2f, 0x52, 0x65, 0x61, 0x64,
  0x56, 0x61, 0x72, 0x69, 0x61, 0x62, 0x6c, 0x65, 0x4f, 0x70, 0x00, 0x00,
  0x04, 0x00, 0x00, 0x00, 0x01, 0x00, 0x00, 0x00, 0x03, 0x00, 0x00, 0x00,
  0x03, 0x00, 0x00, 0x00, 0x10, 0x00, 0x00, 0x00, 0xd6, 0xfc, 0xff, 0xff,
  0x00, 0x00, 0x00, 0x01, 0x14, 0x00, 0x00, 0x00, 0xe8, 0x00, 0x00, 0x00,
  0x06, 0x00, 0x00, 0x00, 0x00, 0x00, 0x00, 0x09, 0xfc, 0x00, 0x00, 0x00,
  0x44, 0xfc, 0xff, 0xff, 0x08, 0x00, 0x00, 0x00, 0x8c, 0x00, 0x00, 0x00,
  0x10, 0x00, 0x00, 0x00, 0x00, 0x00, 0x00, 0x00, 0x00, 0x00, 0x00, 0x00,
  0x00, 0x00, 0x00, 0x00, 0x00, 0x00, 0x00, 0x00, 0x00, 0x00, 0x00, 0x00,
  0x00, 0x00, 0x00, 0x00, 0x00, 0x00, 0x00, 0x00, 0x00, 0x00, 0x00, 0x00,
  0x00, 0x00, 0x00, 0x00, 0x00, 0x00, 0x00, 0x00, 0x00, 0x00, 0x00, 0x00,
  0x00, 0x00, 0x00, 0x00, 0x00, 0x00, 0x00, 0x00, 0x00, 0x00, 0x00, 0x00,
  0x00, 0x00, 0x00, 0x00, 0x00, 0x00, 0x00, 0x00, 0x00, 0x00, 0x00, 0x00,
  0x00, 0x00, 0x00, 0x00, 0x00, 0x00, 0x00, 0x00, 0x00, 0x00, 0x00, 0x00,
  0x00, 0x00, 0x00, 0x00, 0x00, 0x00, 0x00, 0x00, 0x00, 0x00, 0x00, 0x00,
  0x00, 0x00, 0x00, 0x00, 0x00, 0x00, 0x00, 0x00, 0x00, 0x00, 0x00, 0x00,
  0x00, 0x00, 0x00, 0x00, 0x00, 0x00, 0x00, 0x00, 0x00, 0x00, 0x00, 0x00,
  0x00, 0x00, 0x00, 0x00, 0x00, 0x00, 0x00, 0x00, 0x00, 0x00, 0x00, 0x00,
  0x00, 0x00, 0x00, 0x00, 0x10, 0x00, 0x00, 0x00, 0xc2, 0x60, 0x07, 0x3c,
  0xba, 0xc8, 0xc4, 0x3b, 0x42, 0x1a, 0x43, 0x3c, 0x48, 0x92, 0x21, 0x3c,
  0xbe, 0x7e, 0x37, 0x3c, 0xdc, 0x05, 0x36, 0x3c, 0xbc, 0xfb, 0x29, 0x3c,
  0x5a, 0xba, 0x00, 0x3c, 0xbe, 0x1c, 0x0b, 0x3c, 0x45, 0x4b, 0x2f, 0x3c,
  0x35, 0xa1, 0x36, 0x3c, 0x46, 0x2d, 0x46, 0x3c, 0xa5, 0xb0, 0x3e, 0x3c,
  0xd9, 0x00, 0x1b, 0x3c, 0xe5, 0x5a, 0x36, 0x3c, 0x93, 0x97, 0x0b, 0x3c,
  0x18, 0x00, 0x00, 0x00, 0x73, 0x65, 0x71, 0x75, 0x65, 0x6e, 0x74, 0x69,
  0x61, 0x6c, 0x2f, 0x63, 0x6f, 0x6e, 0x76, 0x32, 0x64, 0x2f, 0x43, 0x6f,
  0x6e, 0x76, 0x32, 0x44, 0x00, 0x00, 0x00, 0x00, 0x04, 0x00, 0x00, 0x00,
  0x10, 0x00, 0x00, 0x00, 0x03, 0x00, 0x00, 0x00, 0x03, 0x00, 0x00, 0x00,
  0x02, 0x00, 0x00, 0x00, 0xfe, 0xfd, 0xff, 0xff, 0x00, 0x00, 0x00, 0x01,
  0x14, 0x00, 0x00, 0x00, 0xe4, 0x00, 0x00, 0x00, 0x05, 0x00, 0x00, 0x00,
  0x00, 0x00, 0x00, 0x02, 0x08, 0x01, 0x00, 0x00, 0x6c, 0xfd, 0xff, 0xff,
  0x08, 0x00, 0x00, 0x00, 0x88, 0x00, 0x00, 0x00, 0x10, 0x00, 0x00, 0x00,
  0x00, 0x00, 0x00, 0x00, 0x00, 0x00, 0x00, 0x00, 0x00, 0x00, 0x00, 0x00,
  0x00, 0x00, 0x00, 0x00, 0x00, 0x00, 0x00, 0x00, 0x00, 0x00, 0x00, 0x00,
  0x00, 0x00, 0x00, 0x00, 0x00, 0x00, 0x00, 0x00, 0x00, 0x00, 0x00, 0x00,
  0x00, 0x00, 0x00, 0x00, 0x00, 0x00, 0x00, 0x00, 0x00, 0x00, 0x00, 0x00,
  0x00, 0x00, 0x00, 0x00, 0x00, 0x00, 0x00, 0x00, 0x00, 0x00, 0x00, 0x00,
  0x00, 0x00, 0x00, 0x00, 0x00, 0x00, 0x00, 0x00, 0x00, 0x00, 0x00, 0x00,
  0x00, 0x00, 0x00, 0x00, 0x00, 0x00, 0x00, 0x00, 0x00, 0x00, 0x00, 0x00,
  0x00, 0x00, 0x00, 0x00, 0x00, 0x00, 0x00, 0x00, 0x00, 0x00, 0x00, 0x00,
  0x00, 0x00, 0x00, 0x00, 0x00, 0x00, 0x00, 0x00, 0x00, 0x00, 0x00, 0x00,
  0x00, 0x00, 0x00, 0x00, 0x00, 0x00, 0x00, 0x00, 0x00, 0x00, 0x00, 0x00,
  0x00, 0x00, 0x00, 0x00, 0x00, 0x00, 0x00, 0x00, 0x10, 0x00, 0x00, 0x00,
  0xc2, 0x60, 0x07, 0x3c, 0xba, 0xc8, 0xc4, 0x3b, 0x42, 0x1a, 0x43, 0x3c,
  0x48, 0x92, 0x21, 0x3c, 0xbe, 0x7e, 0x37, 0x3c, 0xdc, 0x05, 0x36, 0x3c,
  0xbc, 0xfb, 0x29, 0x3c, 0x5a, 0xba, 0x00, 0x3c, 0xbe, 0x1c, 0x0b, 0x3c,
  0x45, 0x4b, 0x2f, 0x3c, 0x35, 0xa1, 0x36, 0x3c, 0x46, 0x2d, 0x46, 0x3c,
  0xa5, 0xb0, 0x3e, 0x3c, 0xd9, 0x00, 0x1b, 0x3c, 0xe5, 0x5a, 0x36, 0x3c,
  0x93, 0x97, 0x0b, 0x3c, 0x28, 0x00, 0x00, 0x00, 0x73, 0x65, 0x71, 0x75,
  0x65, 0x6e, 0x74, 0x69, 0x61, 0x6c, 0x2f, 0x63, 0x6f, 0x6e, 0x76, 0x32,
  0x64, 0x2f, 0x42, 0x69, 0x61, 0x73, 0x41, 0x64, 0x64, 0x2f, 0x52, 0x65,
  0x61, 0x64, 0x56, 0x61, 0x72, 0x69, 0x61, 0x62, 0x6c, 0x65, 0x4f, 0x70,
  0x00, 0x00, 0x00, 0x00, 0x01, 0x00, 0x00, 0x00, 0x10, 0x00, 0x00, 0x00,
  0x26, 0xff, 0xff, 0xff, 0x00, 0x00, 0x00, 0x01, 0x14, 0x00, 0x00, 0x00,
  0x34, 0x00, 0x00, 0x00, 0x04, 0x00, 0x00, 0x00, 0x00, 0x00, 0x00, 0x09,
  0x44, 0x00, 0x00, 0x00, 0x94, 0xfe, 0xff, 0xff, 0x08, 0x00, 0x00, 0x00,
  0x14, 0x00, 0x00, 0x00, 0x01, 0x00, 0x00, 0x00, 0x00, 0x00, 0x00, 0x00,
  0x00, 0x00, 0x00, 0x00, 0x00, 0x00, 0x00, 0x00, 0x01, 0x00, 0x00, 0x00,
  0x88, 0x18, 0x89, 0x3c, 0x17, 0x00, 0x00, 0x00, 0x73, 0x65, 0x71, 0x75,
  0x65, 0x6e, 0x74, 0x69, 0x61, 0x6c, 0x2f, 0x64, 0x65, 0x6e, 0x73, 0x65,
  0x2f, 0x4d, 0x61, 0x74, 0x4d, 0x75, 0x6c, 0x00, 0x02, 0x00, 0x00, 0x00,
  0x09, 0x00, 0x00, 0x00, 0x90, 0x00, 0x00, 0x00, 0x8e, 0xff, 0xff, 0xff,
  0x00, 0x00, 0x00, 0x01, 0x14, 0x00, 0x00, 0x00, 0x30, 0x00, 0x00, 0x00,
  0x03, 0x00, 0x00, 0x00, 0x00, 0x00, 0x00, 0x02, 0x50, 0x00, 0x00, 0x00,
  0xfc, 0xfe, 0xff, 0xff, 0x08, 0x00, 0x00, 0x00, 0x10, 0x00, 0x00, 0x00,
  0x01, 0x00, 0x00, 0x00, 0x00, 0x00, 0x00, 0x00, 0x00, 0x00, 0x00, 0x00,
  0x01, 0x00, 0x00, 0x00, 0x68, 0x90, 0xa8, 0x3d, 0x27, 0x00, 0x00, 0x00,
  0x73, 0x65, 0x71, 0x75, 0x65, 0x6e, 0x74, 0x69, 0x61, 0x6c, 0x2f, 0x64,
  0x65, 0x6e, 0x73, 0x65, 0x2f, 0x42, 0x69, 0x61, 0x73, 0x41, 0x64, 0x64,
  0x2f, 0x52, 0x65, 0x61, 0x64, 0x56, 0x61, 0x72, 0x69, 0x61, 0x62, 0x6c,
  0x65, 0x4f, 0x70, 0x00, 0x01, 0x00, 0x00, 0x00, 0x09, 0x00, 0x00, 0x00,
  0x00, 0x00, 0x16, 0x00, 0x1c, 0x00, 0x18, 0x00, 0x17, 0x00, 0x10, 0x00,
  0x0c, 0x00, 0x08, 0x00, 0x00, 0x00, 0x00, 0x00, 0x00, 0x00, 0x07, 0x00,
  0x16, 0x00, 0x00, 0x00, 0x00, 0x00, 0x00, 0x01, 0x18, 0x00, 0x00, 0x00,
  0x18, 0x00, 0x00, 0x00, 0x02, 0x00, 0x00, 0x00, 0x00, 0x00, 0x00, 0x02,
  0x2c, 0x00, 0x00, 0x00, 0x04, 0x00, 0x04, 0x00, 0x04, 0x00, 0x00, 0x00,
  0x18, 0x00, 0x00, 0x00, 0x73, 0x65, 0x71, 0x75, 0x65, 0x6e, 0x74, 0x69,
  0x61, 0x6c, 0x2f, 0x66, 0x6c, 0x61, 0x74, 0x74, 0x65, 0x6e, 0x2f, 0x43,
  0x6f, 0x6e, 0x73, 0x74, 0x00, 0x00, 0x00, 0x00, 0x01, 0x00, 0x00, 0x00,
  0x02, 0x00, 0x00, 0x00, 0x00, 0x00, 0x16, 0x00, 0x20, 0x00, 0x1c, 0x00,
  0x1b, 0x00, 0x14, 0x00, 0x10, 0x00, 0x0c, 0x00, 0x00, 0x00, 0x00, 0x00,
  0x08, 0x00, 0x07, 0x00, 0x16, 0x00, 0x00, 0x00, 0x00, 0x00, 0x00, 0x01,
  0x18, 0x00, 0x00, 0x00, 0x34, 0x00, 0x00, 0x00, 0x54, 0x00, 0x00, 0x00,
  0x01, 0x00, 0x00, 0x00, 0x00, 0x00, 0x00, 0x09, 0x6c, 0x00, 0x00, 0x00,
  0x04, 0x00, 0x00, 0x00, 0xff, 0xff, 0xff, 0xff, 0x03, 0x00, 0x00, 0x00,
  0x03, 0x00, 0x00, 0x00, 0x02, 0x00, 0x00, 0x00, 0x0c, 0x00, 0x0c, 0x00,
  0x00, 0x00, 0x00, 0x00, 0x08, 0x00, 0x04, 0x00, 0x0c, 0x00, 0x00, 0x00,
  0x08, 0x00, 0x00, 0x00, 0x14, 0x00, 0x00, 0x00, 0x01, 0x00, 0x00, 0x00,
  0x80, 0xff, 0xff, 0xff, 0xff, 0xff, 0xff, 0xff, 0x00, 0x00, 0x00, 0x00,
  0x01, 0x00, 0x00, 0x00, 0x00, 0x00, 0x80, 0x3f, 0x1e, 0x00, 0x00, 0x00,
  0x73, 0x65, 0x72, 0x76, 0x69, 0x6e, 0x67, 0x5f, 0x64, 0x65, 0x66, 0x61,
  0x75, 0x6c, 0x74, 0x5f, 0x63, 0x6f, 0x6e, 0x76, 0x32, 0x64, 0x5f, 0x69,
  0x6e, 0x70, 0x75, 0x74, 0x3a, 0x30, 0x00, 0x00, 0x04, 0x00, 0x00, 0x00,
  0x01, 0x00, 0x00, 0x00, 0x03, 0x00, 0x00, 0x00, 0x03, 0x00, 0x00, 0x00,
  0x02, 0x00, 0x00, 0x00, 0x03, 0x00, 0x00, 0x00, 0x40, 0x00, 0x00, 0x00,
  0x24, 0x00, 0x00, 0x00, 0x04, 0x00, 0x00, 0x00, 0xd8, 0xff, 0xff, 0xff,
  0x09, 0x00, 0x00, 0x00, 0x04, 0x00, 0x00, 0x00, 0x00, 0x00, 0x00, 0x09,
  0x0c, 0x00, 0x0c, 0x00, 0x0b, 0x00, 0x00, 0x00, 0x00, 0x00, 0x04, 0x00,
  0x0c, 0x00, 0x00, 0x00, 0x16, 0x00, 0x00, 0x00, 0x00, 0x00, 0x00, 0x16,
  0x0c, 0x00, 0x10, 0x00, 0x0f, 0x00, 0x00, 0x00, 0x08, 0x00, 0x04, 0x00,
  0x0c, 0x00, 0x00, 0x00, 0x03, 0x00, 0x00, 0x00, 0x03, 0x00, 0x00, 0x00,
  0x00, 0x00, 0x00, 0x03
};

#endif
